<unk>	0
<s>	0
</s>	0
[PAD]	0
[UNK]	0
[CLS]	0
[SEP]	0
[MASK]	0
[BOS]	0
[EOS]	0
[UNK0]	0
[UNK1]	0
[UNK2]	0
[UNK3]	0
[UNK4]	0
[UNK5]	0
[UNK6]	0
[UNK7]	0
[UNK8]	0
[UNK9]	0
[unused0]	0
[unused1]	0
[unused2]	0
[unused3]	0
[unused4]	0
[unused5]	0
[unused6]	0
[unused7]	0
[unused8]	0
[unused9]	0
[unused10]	0
[unused11]	0
[unused12]	0
[unused13]	0
[unused14]	0
[unused15]	0
[unused16]	0
[unused17]	0
[unused18]	0
[unused19]	0
[unused20]	0
[unused21]	0
[unused22]	0
[unused23]	0
[unused24]	0
[unused25]	0
[unused26]	0
[unused27]	0
[unused28]	0
[unused29]	0
[unused30]	0
[unused31]	0
[unused32]	0
[unused33]	0
[unused34]	0
[unused35]	0
[unused36]	0
[unused37]	0
[unused38]	0
[unused39]	0
[unused40]	0
[unused41]	0
[unused42]	0
[unused43]	0
[unused44]	0
[unused45]	0
[unused46]	0
[unused47]	0
[unused48]	0
[unused49]	0
[unused50]	0
[unused51]	0
[unused52]	0
[unused53]	0
[unused54]	0
[unused55]	0
[unused56]	0
[unused57]	0
[unused58]	0
[unused59]	0
[unused60]	0
[unused61]	0
[unused62]	0
[unused63]	0
[unused64]	0
[unused65]	0
[unused66]	0
[unused67]	0
[unused68]	0
[unused69]	0
[unused70]	0
[unused71]	0
[unused72]	0
[unused73]	0
[unused74]	0
[unused75]	0
[unused76]	0
[unused77]	0
[unused78]	0
[unused79]	0
[unused80]	0
[unused81]	0
[unused82]	0
[unused83]	0
[unused84]	0
[unused85]	0
[unused86]	0
[unused87]	0
[unused88]	0
[unused89]	0
[unused90]	0
[unused91]	0
[unused92]	0
[unused93]	0
[unused94]	0
[unused95]	0
[unused96]	0
[unused97]	0
[unused98]	0
[unused99]	0
.	-3.30853
▁"	-3.8822
,	-4.10911
을	-4.19447
"	-4.1993
""	-4.25828
▁""	-4.35537
▁	-4.36422
?	-4.37759
고	-4.47991
는	-4.52538
의	-4.55092
▁나는	-4.60446
를	-4.61101
이	-4.76546
에	-4.9097
가	-4.92673
은	-4.94709
."	-4.98774
도	-5.21425
▁너는	-5.37016
▁수	-5.4086
!	-5.41124
▁있다	-5.43149
며	-5.46585
과	-5.55251
한	-5.60753
에서	-5.64627
▁잘	-5.65931
▁있어	-5.70721
로	-5.71284
안녕	-5.74709
▁것	-5.77877
▁내	-5.80462
으로	-5.818
▁안녕	-5.89139
와	-5.94998
▁오늘	-5.95732
▁말했다	-5.97953
할	-5.98024
일	-6.00431
지	-6.0717
▁난	-6.09161
▁있는	-6.15184
인	-6.18805
이라고	-6.24726
다	-6.26687
▁어때	-6.27597
▁어떻게	-6.29229
▁지내니	-6.31812
▁한	-6.38558
게	-6.40819
요	-6.42288
▁더	-6.44325
만	-6.4525
▁등	-6.5039
▁이	-6.51231
하고	-6.51502
▁내가	-6.51632
야	-6.52342
▁것을	-6.52374
하는	-6.54899
▁지내고	-6.55908
해	-6.56278
▁한다	-6.57221
년	-6.61792
▁위해	-6.64827
▁좋아	-6.65618
서	-6.6595
▁전	-6.65973
▁밝혔다	-6.69788
▁하고	-6.72523
▁좋은	-6.72596
▁1	-6.72705
▁대한	-6.74681
▁좋아하는	-6.75231
'	-6.75483
▁대해	-6.76551
▁안	-6.76697
▁그	-6.77858
기	-6.80103
니	-6.84161
▁너무	-6.85081
▁2	-6.85587
▁할	-6.85811
나	-6.86866
나는	-6.86906
▁방금	-6.87982
▁'	-6.90927
▁거예요	-6.91308
라고	-6.91776
▁3	-6.91957
▁나의	-6.92653
▁가장	-6.93224
▁했다	-6.96317
▁많이	-6.97174
▁없다	-6.99618
▁함께	-7.00385
월	-7.00592
면	-7.014
했다	-7.02519
▁것으로	-7.02821
▁정말	-7.04
▁때	-7.04203
▁하는	-7.05608
이라며	-7.05963
▁통해	-7.06384
▁관계자는	-7.0731
▁것은	-7.07622
▁있니	-7.13
에게	-7.15761
하게	-7.15905
▁좋아해	-7.17052
된	-7.17918
▁나	-7.18504
면서	-7.19331
보세요	-7.19389
▁것이다	-7.21108
▁게	-7.21613
▁4	-7.22851
▁그냥	-7.2298
▁또	-7.2302
·	-7.25558
▁있을	-7.26493
▁우리	-7.26515
▁중	-7.27441
대	-7.27495
▁때문에	-7.27516
▁다	-7.28653
그는	-7.28728
▁가지고	-7.28747
▁괜찮아	-7.29052
▁많은	-7.29475
▁좋아한다	-7.33429
▁5	-7.33524
▁거	-7.34536
▁것이	-7.35848
자	-7.35918
히	-7.36749
까지	-7.36862
이다	-7.37209
하지	-7.38348
시	-7.38703
▁해	-7.39929
▁다른	-7.40021
▁그리고	-7.40745
▁이날	-7.42175
▁될	-7.4275
▁위한	-7.43836
▁어떤	-7.44533
▁좀	-7.4487
▁김	-7.45453
▁지금	-7.46359
던	-7.46628
▁고마워	-7.46824
▁그것은	-7.46836
▁무엇을	-7.47029
▁사람	-7.48737
▁지난	-7.51117
▁오	-7.51242
▁두	-7.51425
네요	-7.52073
들이	-7.52474
적인	-7.54204
▁큰	-7.54904
▁매우	-7.5529
▁강조했다	-7.56227
▁10	-7.56234
▁일	-7.56845
▁설명했다	-7.57261
▁그는	-7.58223
▁다시	-7.58464
어	-7.61235
▁보고	-7.618
▁박	-7.62099
▁건	-7.64956
진	-7.65548
▁너의	-7.66424
▁새로운	-7.66912
적	-7.67552
세요	-7.67688
▁6	-7.67947
▁및	-7.68204
라	-7.68227
수	-7.69344
▁모든	-7.69472
한다	-7.69571
▁밤	-7.69748
▁한국	-7.70339
▁모두	-7.71845
▁사람이	-7.72511
▁같은	-7.72624
▁이번	-7.73215
▁대단해	-7.73468
▁단지	-7.73705
적으로	-7.74371
▁잘지내니	-7.74649
주	-7.7521
▁않아	-7.75348
될	-7.75789
▁넌	-7.76004
오	-7.76506
▁싶어	-7.76755
하기	-7.775
▁없는	-7.77642
▁하지만	-7.78103
▁멋지다	-7.78548
▁기분	-7.78866
▁일을	-7.78915
보다	-7.79345
▁너	-7.79451
▁제	-7.8033
▁등을	-7.80931
해야	-7.80952
이나	-7.81296
▁있었다	-7.81675
▁관련	-7.8174
김	-7.81801
▁후	-7.82108
정	-7.82116
▁좋아하니	-7.82187
▁경우	-7.82216
죠	-7.83027
▁말	-7.83041
▁따라	-7.86
▁왜	-7.86111
길	-7.86115
▁7	-7.86118
라는	-7.86737
박	-7.87476
개	-7.8748
▁싶다	-7.87752
부터	-7.89167
▁없어	-7.89322
▁이름은	-7.89551
▁기분이	-7.89693
차	-7.89733
▁된다	-7.89801
▁가	-7.90309
▁좋다	-7.90474
봐요	-7.90856
▁나를	-7.92286
사	-7.92527
라며	-7.92554
▁아니라	-7.92638
▁네가	-7.92809
▁의원은	-7.93488
이야	-7.93521
▁이제	-7.93804
지만	-7.93843
▁그러나	-7.93991
▁전했다	-7.94553
▁같아	-7.94817
▁있도록	-7.9513
▁않다	-7.95479
▁그런	-7.95524
▁뒤	-7.95703
▁하지	-7.96343
▁나도	-7.9643
▁덧붙였다	-7.96622
▁않는다	-7.968
선	-7.97007
처럼	-7.98394
조	-7.98966
▁같아요	-8.00475
▁않았다	-8.00657
▁만큼	-8.00697
▁걸	-8.01505
▁꽤	-8.0201
▁미국	-8.02221
성	-8.02225
▁못	-8.02293
▁있어요	-8.02575
▁데	-8.02904
▁시간이	-8.03272
원	-8.03546
▁계속	-8.03801
▁8	-8.0397
▁정부	-8.04433
▁하니	-8.04666
▁뭐니	-8.04853
하면	-8.06375
▁대표는	-8.07162
들을	-8.07509
▁이어	-8.07782
는데	-8.07791
▁이후	-8.08065
이어	-8.09252
▁같다	-8.09343
리	-8.09437
들은	-8.09713
▁9	-8.09959
▁줄	-8.10006
▁일이	-8.10446
▁것도	-8.10634
여	-8.10841
상	-8.10875
▁하나	-8.1157
▁이상	-8.11945
네	-8.12171
명	-8.12787
에는	-8.12843
이번	-8.13015
신	-8.13074
전	-8.13098
▁중국	-8.13296
▁대통령은	-8.13654
거	-8.13737
▁있고	-8.13881
아	-8.13939
▁오후	-8.14284
▁않고	-8.14303
▁그것을	-8.14596
에도	-8.15038
▁아니다	-8.15629
해보세요	-8.16008
▁보는	-8.16542
▁같이	-8.16708
▁정	-8.17277
▁무슨	-8.17702
부	-8.18151
▁주	-8.18378
▁이런	-8.1884
▁서울	-8.1892
▁됐다	-8.19333
▁수도	-8.19744
▁다양한	-8.20386
장	-8.20846
▁날	-8.21008
▁갈	-8.21422
문	-8.21612
▁경기	-8.218
▁지적했다	-8.22284
▁생각	-8.22306
이라는	-8.22565
▁시	-8.22944
도록	-8.22952
씨는	-8.23351
▁그래서	-8.2419
▁동안	-8.24341
▁여기	-8.24483
▁거야	-8.24614
당	-8.25527
돼	-8.25583
▁마음이	-8.26161
▁않는	-8.26311
▁아직	-8.26318
▁바	-8.264
▁이야기	-8.26718
▁그래	-8.26795
▁문	-8.26916
▁대통령	-8.27149
데	-8.27333
▁볼	-8.27548
▁말을	-8.27791
▁직접	-8.27794
▁썸	-8.28204
▁않은	-8.28456
난	-8.28563
소	-8.28809
▁당	-8.28852
하	-8.28893
해서	-8.28918
▁현재	-8.28978
구	-8.29489
▁투자	-8.29911
▁열린	-8.30193
▁감독은	-8.31094
랑	-8.31132
세	-8.3126
▁먹고	-8.31449
▁조금	-8.31868
▁20	-8.32131
▁아주	-8.32262
▁해야	-8.32777
하면서	-8.32792
▁그렇게	-8.33074
▁사	-8.33242
▁하루	-8.33676
▁이별	-8.33818
▁주장했다	-8.33859
▁마세요	-8.34402
스	-8.34488
▁또한	-8.34688
용	-8.34748
중	-8.35392
▁몇	-8.35417
▁집에	-8.35459
▁오늘은	-8.35509
형	-8.35655
또	-8.35779
분	-8.35997
내	-8.36011
▁세	-8.36092
▁특히	-8.36141
▁시간을	-8.36713
▁먼저	-8.36974
▁않을	-8.37024
이에요	-8.3786
▁생각한다	-8.38025
▁지역	-8.38226
명의	-8.38543
동	-8.38597
▁지내	-8.38709
▁오전	-8.38927
▁지난해	-8.39261
▁막	-8.39463
▁원	-8.3953
▁없이	-8.39563
제	-8.39568
▁국내	-8.39681
▁항상	-8.39746
▁최근	-8.40206
▁있지만	-8.40318
▁시간	-8.40546
▁되는	-8.40634
▁올	-8.40788
▁사랑	-8.4116
비	-8.41191
억	-8.41286
▁올해	-8.41477
▁새	-8.41583
▁더욱	-8.41621
안	-8.41635
▁신	-8.41795
▁바란다	-8.42031
▁지	-8.42233
▁12	-8.42505
▁끝냈어	-8.42516
화	-8.42617
▁만나	-8.42632
▁가는	-8.42737
▁대	-8.42998
▁알고	-8.43093
▁갖고	-8.43178
▁음악을	-8.43309
▁해보세요	-8.43372
우	-8.4339
▁마음	-8.43676
질	-8.44757
▁30	-8.44826
엔	-8.44872
들	-8.45126
▁11	-8.45269
인데	-8.45393
▁국회	-8.4551
어때	-8.45685
▁대해서는	-8.45883
치	-8.45899
▁정도	-8.46239
▁문제	-8.46241
▁결정	-8.46946
▁경제	-8.4702
▁아니	-8.47138
들의	-8.47225
▁아	-8.47257
▁조사	-8.47274
그	-8.4729
▁돼	-8.4755
▁받고	-8.47657
유	-8.48006
▁들어	-8.48104
▁번	-8.48461
했던	-8.48547
▁자신의	-8.48716
▁보인다	-8.48974
거나	-8.49052
▁세계	-8.49214
▁첫	-8.49275
▁알	-8.49353
▁혼자	-8.49506
▁간	-8.49696
회	-8.50248
▁필요하다	-8.50298
▁친구	-8.50427
▁우리는	-8.50504
미	-8.50976
▁당시	-8.51029
▁후보	-8.51181
건	-8.51462
▁있는데	-8.51652
▁계획	-8.52042
▁중요한	-8.52145
▁총	-8.52172
▁비	-8.52184
▁이렇게	-8.53205
호	-8.53312
됐다	-8.5337
좋아	-8.53597
▁좋을	-8.53607
겠다	-8.53757
▁국가	-8.53765
▁살	-8.53852
▁매	-8.53855
▁돌아왔어	-8.54143
▁전에	-8.54599
▁거기	-8.54652
▁최고	-8.55467
▁대표	-8.55564
▁좋겠다	-8.56146
▁앞으로	-8.56416
▁부	-8.56561
드	-8.56768
▁의원	-8.57127
▁되고	-8.57597
연	-8.57615
하며	-8.57703
▁문제가	-8.57742
▁온	-8.58076
산	-8.58104
▁미	-8.58327
▁A	-8.58635
▁듣고	-8.58801
▁하면	-8.58838
▁서로	-8.58871
하세요	-8.59165
▁등의	-8.59178
▁당신은	-8.59227
▁생각해	-8.59359
▁만들어	-8.59385
▁시장	-8.59611
▁일본	-8.59722
▁정책	-8.60025
1	-8.60172
2	-8.60557
▁있다는	-8.60621
▁자	-8.60731
▁물론	-8.60975
군	-8.61157
3	-8.6119
▁아닌	-8.61214
▁이같이	-8.61361
▁된	-8.61605
국	-8.62129
▁반	-8.62614
▁약	-8.62659
▁만나서	-8.62756
법	-8.62824
▁수사	-8.63067
권	-8.63174
▁기업	-8.63214
▁연락	-8.63228
▁아침	-8.63489
▁책을	-8.63592
▁기	-8.63616
되는	-8.63729
운	-8.63861
▁추가	-8.63863
▁국민	-8.64094
▁개를	-8.64247
▁청와대	-8.64265
▁사랑한다	-8.64318
▁관심	-8.64497
경	-8.64552
만원	-8.6462
음	-8.64764
▁조	-8.65242
간	-8.65266
식	-8.65533
강	-8.65628
▁집	-8.65638
▁나서	-8.65731
단	-8.65829
▁뭐	-8.6591
▁여러	-8.66048
▁필요한	-8.66091
입니다	-8.6649
▁힘든	-8.66682
로부터	-8.66843
▁경찰	-8.67071
▁가지	-8.67119
종	-8.67236
▁사업	-8.67275
였다	-8.67292
▁가고	-8.67318
아니	-8.67329
▁도움이	-8.67393
▁바로	-8.67506
▁학교	-8.67533
위	-8.67614
▁북한	-8.67681
대로	-8.67789
▁하	-8.67863
까	-8.68131
하지만	-8.6825
▁운영	-8.68264
▁일부	-8.68343
▁사실	-8.68781
▁200	-8.68987
▁것에	-8.69446
▁제가	-8.69453
▁지원	-8.69888
▁이를	-8.69888
▁가능성이	-8.69953
▁높은	-8.6997
▁그녀	-8.70271
▁멋진	-8.70441
앞으로	-8.70467
▁유	-8.70585
▁대변인은	-8.70667
▁개	-8.70698
하다	-8.70952
▁구	-8.70984
▁곧	-8.7108
▁공부	-8.72291
하겠다	-8.72297
▁나와	-8.72341
▁얼마나	-8.72371
▁진짜	-8.72375
보	-8.72384
▁왔어	-8.72433
들에게	-8.72845
▁시즌	-8.73029
▁마음을	-8.73046
명이	-8.73235
▁역시	-8.7353
▁달	-8.73797
▁뿐	-8.73828
재	-8.74189
▁차	-8.74408
▁참	-8.74539
들과	-8.74651
▁입장을	-8.75008
▁있지	-8.75086
억원	-8.75354
무	-8.75524
러	-8.75997
우리	-8.76
려	-8.76219
▁어렵다	-8.76293
▁논의	-8.76311
이었다	-8.76428
▁있다고	-8.76629
그러면서	-8.77059
▁게임을	-8.77077
▁책임	-8.77351
▁확대	-8.77481
▁반가워	-8.77596
임	-8.77756
현	-8.77842
▁강	-8.77914
▁새누리당	-8.77924
▁가능성	-8.77991
▁교수는	-8.78183
▁어떠니	-8.7828
▁문제를	-8.78393
▁해도	-8.7845
▁연애	-8.78632
▁찾아	-8.78703
▁별로	-8.78739
▁부분	-8.7894
▁결과	-8.78982
▁19	-8.79038
▁저	-8.79349
▁관련해	-8.79477
▁이미	-8.79544
트	-8.79655
▁이에	-8.79861
▁왔다	-8.80023
▁나에게	-8.80192
▁자꾸	-8.80368
▁진행	-8.80624
▁성장	-8.80664
▁준비	-8.8067
▁있게	-8.80704
▁적이	-8.80731
▁서	-8.80921
▁매일	-8.80998
▁관리	-8.81018
마	-8.81181
▁힘들	-8.81761
▁어느	-8.81845
▁긴	-8.8225
오늘	-8.82599
▁관심이	-8.82757
기를	-8.82771
▁개발	-8.82883
▁게임	-8.83076
시간	-8.83469
번	-8.83875
▁있을까	-8.84545
▁사람들	-8.8474
▁본	-8.84884
려고	-8.84897
▁등이	-8.84983
▁등에	-8.85104
▁영화	-8.85308
▁물어봐줘서	-8.85379
장은	-8.85512
▁연구원은	-8.85537
양	-8.85595
▁있	-8.85628
▁다음	-8.85637
▁네	-8.85658
▁있습니다	-8.86182
▁글로벌	-8.86308
▁양	-8.86396
▁마	-8.86456
가봐요	-8.86546
▁정부가	-8.86591
▁여자	-8.86619
▁생각을	-8.86699
▁크게	-8.8686
▁빨리	-8.86864
▁선	-8.86894
▁대학	-8.86995
▁정보	-8.8723
▁해서	-8.87243
▁판매	-8.87259
▁필요가	-8.87327
겠어요	-8.87351
▁개선	-8.87366
▁상황	-8.87451
▁충분히	-8.87571
▁하세요	-8.87735
영	-8.87822
▁사람은	-8.88173
▁예정이다	-8.88385
▁살고	-8.88425
▁예정	-8.88461
▁보	-8.88495
▁안전	-8.88692
공	-8.88753
▁15	-8.88862
배	-8.89043
▁수준	-8.89062
▁마지막	-8.89116
▁최	-8.89188
▁일자리	-8.89243
▁확인	-8.89334
▁사는	-8.89414
▁하루는	-8.8946
▁너에	-8.89478
▁받은	-8.89562
했고	-8.8967
▁결혼	-8.89751
란	-8.89754
▁보면	-8.90002
▁결국	-8.90183
▁없어요	-8.90288
살	-8.90345
▁장	-8.90599
▁듯	-8.90994
▁오는	-8.91051
기도	-8.91243
▁스스로	-8.91339
▁따르면	-8.91398
학	-8.91434
▁사람을	-8.91451
▁없었다	-8.91513
계	-8.91584
▁방법	-8.91675
▁가족	-8.91714
▁못했다	-8.91773
▁그들은	-8.91917
▁가운데	-8.92023
▁의견	-8.92163
▁힘	-8.92258
▁작은	-8.92288
▁제대로	-8.92294
▁어디서	-8.923
▁추진	-8.9238
▁있으면	-8.92833
▁아무	-8.92985
으면	-8.93155
되고	-8.93192
▁초	-8.93398
하여	-8.93491
승	-8.93608
▁싶은	-8.93723
▁고양이	-8.93738
▁그럴	-8.93833
된다	-8.9394
▁교육	-8.94111
었다	-8.94285
최근	-8.94379
▁검찰	-8.94643
▁와	-8.94652
실	-8.94663
좋은	-8.948
했지만	-8.94949
민	-8.95083
▁대통령이	-8.95102
▁박근혜	-8.95158
▁타	-8.95211
준	-8.95292
▁비디오	-8.95343
▁받았다	-8.95629
▁거의	-8.95823
▁따른	-8.95912
▁만드는	-8.9597
▁물	-8.95997
▁회장은	-8.95999
온	-8.96043
4	-8.96172
▁때문이다	-8.96222
▁점	-8.96324
▁질문에	-8.96342
▁TV	-8.96459
관	-8.96486
▁친구가	-8.96502
▁상	-8.96559
▁받을	-8.96592
▁인사	-8.96885
▁있기	-8.97045
▁후보는	-8.97081
▁응	-8.97149
년간	-8.972
▁돼요	-8.97258
▁시작	-8.97307
▁기술	-8.97343
급	-8.97403
▁사회	-8.9761
▁달라	-8.97621
개월	-8.97832
▁강화	-8.97913
석	-8.97972
▁하겠다	-8.98007
▁개인	-8.98179
현재	-8.98189
천	-8.98208
▁여행	-8.98308
▁사건	-8.98321
▁선물	-8.98406
▁싶니	-8.98647
▁열심히	-8.98696
심	-8.98713
▁선거	-8.9879
▁전국	-8.98862
▁우리가	-8.98887
▁피	-8.99004
▁없을	-8.99096
▁돈을	-8.99102
▁상황에서	-8.99253
▁자신을	-8.99302
▁회사	-8.99414
▁법	-8.99452
▁저녁	-8.99497
▁꼭	-8.99577
▁우	-8.99587
▁운동	-8.99683
▁팀	-8.99816
▁준비를	-8.99842
▁해외	-9.0021
노	-9.00302
▁엄마	-9.00555
▁종류의	-9.00651
▁18	-9.00657
▁사랑하는	-9.00691
▁사람들이	-9.00831
▁역할을	-9.00898
▁남	-9.01106
▁생활	-9.01148
▁무	-9.01342
▁헤어진지	-9.01359
▁받아	-9.01363
▁남자	-9.01979
▁저도	-9.02035
모	-9.02063
▁각	-9.0207
▁국민의	-9.02077
▁ᄏᄏᄏ	-9.02122
▁등으로	-9.02284
인지	-9.02375
▁사랑이	-9.0245
▁과정에서	-9.02456
▁측은	-9.02705
두	-9.03284
합니다	-9.03417
▁배	-9.03423
로서	-9.03435
▁오래	-9.03505
▁기회	-9.03537
▁군	-9.0355
▁장관은	-9.03594
▁좋지	-9.03638
▁단	-9.0367
▁그게	-9.03703
▁사고	-9.03738
져	-9.03746
▁좋아요	-9.03924
▁먹는	-9.03936
▁대한민국	-9.04113
▁요즘	-9.04157
금	-9.04167
▁내일	-9.04431
린	-9.04634
5	-9.0465
▁여전히	-9.04725
청	-9.04754
했어	-9.04961
▁문화	-9.05028
일까지	-9.05046
▁선수	-9.05075
▁좋아하지	-9.05198
▁집중	-9.05353
▁될까	-9.05359
▁반대	-9.05473
▁보내고	-9.05483
점	-9.0552
▁정치	-9.05622
▁어려운	-9.05684
하는데	-9.05821
▁술	-9.05826
▁발생	-9.06157
으로부터	-9.06175
▁보다	-9.06222
▁소	-9.06258
▁13	-9.06451
▁그러면서	-9.06474
에서는	-9.06485
습니다	-9.06516
▁안돼	-9.06618
파	-9.0674
▁주요	-9.06758
갈	-9.06793
▁가진	-9.06849
함	-9.06873
▁처리	-9.07011
▁대통령의	-9.07155
▁많아	-9.07189
6	-9.07252
▁협력	-9.07558
▁계획이다	-9.07561
▁생각이	-9.07647
▁요구	-9.07727
▁심	-9.07949
▁일하는	-9.07985
반	-9.0799
▁자기	-9.08046
▁최대	-9.082
▁쉽지	-9.08345
▁100	-9.08365
▁여자친구가	-9.08788
▁노	-9.08922
▁있어서	-9.09106
▁바랄게요	-9.0923
▁미래	-9.09277
이에	-9.0937
▁변호사	-9.09375
▁본다	-9.09511
▁타고	-9.09614
▁인해	-9.09617
라도	-9.09634
한테	-9.10005
▁싫어	-9.10044
▁일해	-9.1019
▁승리	-9.10232
▁감사	-9.1024
▁수출	-9.10573
7	-9.10708
▁못하고	-9.1092
▁25	-9.10921
지도	-9.10961
▁비판했다	-9.11157
▁내년	-9.11162
▁업무	-9.11298
▁책	-9.11374
▁서비스	-9.11382
릴	-9.11458
▁힘들어	-9.11653
▁하는데	-9.11709
▁효과	-9.1173
▁애	-9.11967
▁당부했다	-9.12077
되지	-9.12093
9	-9.12113
▁살아	-9.12156
▁음식을	-9.12255
타	-9.12297
▁자동차	-9.12407
루	-9.12605
▁아니면	-9.12744
발	-9.12833
▁즐긴다	-9.13022
▁모습을	-9.13055
▁축구	-9.13163
▁상품	-9.13269
날	-9.13282
▁진출	-9.13497
▁남자친구가	-9.13515
▁최선을	-9.13553
▁끝	-9.13618
방	-9.13757
든	-9.13869
▁자주	-9.1394
지난	-9.14041
예	-9.14188
▁관계	-9.14368
▁제도	-9.14478
▁적	-9.14623
▁공	-9.1463
▁명	-9.14742
▁재	-9.14935
▁참여	-9.15056
▁방문	-9.15183
▁고민	-9.15296
▁처음	-9.15328
▁어	-9.1534
▁회장	-9.15427
르	-9.15482
▁약간의	-9.15513
긴	-9.15773
▁앉아	-9.15886
▁온라인	-9.15931
더	-9.15964
▁짝사랑	-9.16009
▁말해줘	-9.16024
▁행사	-9.16046
▁대화	-9.16049
▁두고	-9.1609
▁불	-9.16129
▁일하니	-9.16191
▁고객	-9.16312
▁말고	-9.164
▁되면	-9.16483
▁앞서	-9.16552
잘	-9.16562
▁속	-9.16577
지는	-9.1658
▁해당	-9.16631
▁규모	-9.16649
거예요	-9.16654
▁좋겠어	-9.16833
▁한편	-9.1706
경찰	-9.17061
▁연구	-9.1726
▁내용	-9.17267
▁되지	-9.17321
층	-9.1733
래	-9.17404
남	-9.17481
▁목소리	-9.17549
▁당신이	-9.17568
▁타는	-9.17609
▁합의	-9.17692
특히	-9.17765
▁기존	-9.17832
▁주는	-9.17855
-	-9.17922
▁선발	-9.17955
면서도	-9.18155
▁한번	-9.18383
▁영화를	-9.1839
태	-9.18396
▁공식	-9.18411
▁모	-9.18498
▁14	-9.18536
▁잘지내	-9.18694
▁시험	-9.18718
▁증가	-9.18867
올해	-9.18917
▁뭘	-9.18939
줄	-9.19012
▁전혀	-9.19179
▁아이	-9.19392
▁영향을	-9.19507
▁들	-9.19604
▁현장	-9.19631
▁기간	-9.1971
겠죠	-9.19831
▁많다	-9.19983
▁아이들을	-9.20023
없이	-9.2007
▁드세요	-9.20084
▁협의	-9.20098
▁24	-9.20214
▁국민의당	-9.20344
▁스트레스	-9.20364
▁지금은	-9.20398
▁장관	-9.20528
▁애완동물을	-9.20554
별	-9.2064
▁핵심	-9.20667
▁없	-9.20913
▁방	-9.21077
병	-9.21082
후	-9.21109
울	-9.21141
▁중요하다	-9.21154
▁검토	-9.21205
일부터	-9.21297
▁대단하다	-9.21302
▁했어	-9.21304
▁뭐하고	-9.2132
▁상대	-9.21346
▁대부분	-9.2139
▁16	-9.21431
▁음	-9.21615
▁연	-9.21627
▁있는지	-9.21801
▁눈	-9.21835
▁음악	-9.21946
▁분	-9.21954
오히려	-9.22123
▁보통	-9.22265
▁기대	-9.22284
▁감독	-9.22344
▁환경	-9.22352
▁역사	-9.22591
▁할까	-9.22827
때	-9.22843
▁대신	-9.22865
▁경기를	-9.22883
▁17	-9.22887
▁했는데	-9.2303
▁채	-9.23045
▁이용	-9.23089
▁좋죠	-9.23183
▁제일	-9.23222
▁전체	-9.23301
초	-9.23594
▁걱정	-9.23699
▁보기	-9.23757
▁삼성	-9.23972
▁SK	-9.24069
그러나	-9.24124
최	-9.24237
▁있나	-9.24255
▁윤	-9.24257
▁못한	-9.24278
▁답했다	-9.2432
▁돈	-9.24448
▁지난달	-9.2446
▁발표	-9.24641
▁조치	-9.24724
▁혐의	-9.24768
이란	-9.24795
▁주말에	-9.25072
볼	-9.25116
▁반드시	-9.25393
▁보였다	-9.2546
A	-9.25524
▁집에서	-9.25669
▁일정	-9.25729
생	-9.25835
▁필요	-9.26077
▁적극	-9.26078
▁성	-9.26135
▁일하고	-9.26176
▁임	-9.26201
▁얘기	-9.26216
홍	-9.2624
▁여성	-9.26287
▁바랍니다	-9.26447
▁상황이	-9.26461
▁알아	-9.26546
그래	-9.26596
▁상황을	-9.26638
지역	-9.2664
프	-9.26641
▁하기	-9.26727
▁몸	-9.26822
▁가치	-9.26932
▁중인	-9.27006
▁시스템	-9.2701
▁데이트	-9.27219
▁전문	-9.27267
▁목표	-9.27386
▁그림	-9.27554
▁있으며	-9.27566
▁왔니	-9.27631
철	-9.2779
▁수밖에	-9.2782
론	-9.2791
▁어디	-9.28009
▁학교에	-9.28053
▁부산	-9.28065
▁말이	-9.28244
▁그의	-9.28257
▁밖에	-9.28269
한국	-9.28338
다만	-9.28379
▁보세요	-9.28401
물	-9.28501
▁의혹	-9.28504
▁되어	-9.28534
▁여	-9.28679
▁지속적으로	-9.28715
▁잠시	-9.28721
▁행위	-9.28841
▁대선	-9.28905
위원장은	-9.29056
▁분석	-9.29074
▁나갈	-9.29139
▁것과	-9.29178
▁해요	-9.29194
▁동	-9.29388
▁있다면	-9.29438
▁전화	-9.29453
▁이름	-9.29666
▁것처럼	-9.29829
▁적극적으로	-9.2992
▁열	-9.29922
▁대응	-9.29922
있다	-9.30056
▁사회적	-9.30062
▁산다	-9.30132
▁이사	-9.30135
▁22	-9.30198
만큼	-9.30213
▁만들	-9.30313
▁순	-9.30371
경기	-9.30484
분기	-9.30815
▁피곤해	-9.30856
▁대비	-9.30967
▁학생	-9.3098
▁조성	-9.31021
씨가	-9.31095
▁재미로	-9.3114
▁주장	-9.31141
▁그것이	-9.31148
▁사용	-9.31168
정부	-9.31217
▁일한다	-9.3125
▁통합	-9.31297
▁LG	-9.31349
▁낮	-9.31381
감	-9.31551
▁한다는	-9.3162
▁구성	-9.31631
▁받는	-9.31713
환	-9.3178
▁우선	-9.3193
황	-9.31997
희	-9.3202
▁만들고	-9.32163
▁쉽게	-9.32226
▁진	-9.32324
▁하루를	-9.32466
▁해결	-9.32473
명을	-9.3259
▁쉬고	-9.32613
▁발전	-9.32812
▁아이가	-9.32976
주세요	-9.32977
▁앞	-9.32981
거야	-9.33015
걸	-9.33199
수록	-9.33252
▁이해	-9.33262
▁사과	-9.33335
개의	-9.33336
▁불법	-9.3338
▁대상으로	-9.33576
▁생각해요	-9.33658
▁보니	-9.33667
▁혁신	-9.33971
위원회	-9.34058
▁달리	-9.34228
디	-9.34347
▁맞춰	-9.34385
▁우승	-9.34532
▁조직	-9.34534
▁기대한다	-9.3455
▁위	-9.34551
있는	-9.34628
▁말해	-9.34632
▁노력을	-9.34691
▁북한의	-9.34727
이봐	-9.34774
▁커피	-9.34886
▁브랜드	-9.34996
마다	-9.35006
▁어제	-9.35007
역	-9.35144
▁판단	-9.35212
에서도	-9.35269
▁정도로	-9.35359
▁점을	-9.3538
▁50	-9.35391
▁전략	-9.35404
▁차를	-9.35437
▁건강	-9.3554
포	-9.35551
▁원내대표는	-9.35606
▁병원	-9.35656
▁추천	-9.35673
▁앞두고	-9.35701
▁말씀	-9.35717
▁노래	-9.35751
▁축구를	-9.35808
곤	-9.35858
근	-9.36041
▁평가	-9.3608
▁자리에서	-9.362
▁향후	-9.36249
▁23	-9.3626
윤	-9.36347
▁또는	-9.36455
▁산	-9.36607
▁자신이	-9.36611
▁산업	-9.36646
▁민주당	-9.36883
▁읽고	-9.36918
▁나쁜	-9.36926
▁대화를	-9.36936
▁저는	-9.36952
▁맞는	-9.37035
▁없고	-9.37051
것	-9.37109
한편	-9.37122
▁피해	-9.37126
▁못하는	-9.3718
▁경쟁력	-9.3721
▁인상	-9.37266
교육	-9.37335
피	-9.37337
▁21	-9.37357
류	-9.37438
▁하하	-9.37518
▁손	-9.37738
▁필요해	-9.37913
매	-9.37951
바	-9.38095
▁일찍	-9.38227
각	-9.38281
▁의미	-9.38283
▁말해보세요	-9.38366
▁원내대표	-9.38392
▁그대로	-9.38486
▁홍	-9.38538
▁전환	-9.38581
▁문재인	-9.38706
▁듣는	-9.38858
▁측	-9.3888
▁음식	-9.38894
▁산책	-9.39017
하니	-9.39199
▁평가했다	-9.39493
한다는	-9.395
경제	-9.39569
등	-9.39585
▁인터넷	-9.39592
▁곳이	-9.39593
교	-9.39595
▁중심으로	-9.39601
▁좋겠어요	-9.3961
▁팔	-9.39625
▁상승	-9.39637
▁나쁘지	-9.39703
▁밥	-9.39804
▁마련	-9.40008
이런	-9.4002
▁내용을	-9.40052
▁개혁	-9.4011
▁읽는	-9.40184
▁우려	-9.40206
해도	-9.40319
▁교수	-9.40476
▁제품	-9.40595
▁멋져	-9.40669
▁입	-9.40684
본	-9.40767
지금	-9.40952
▁기록	-9.40985
▁고양이를	-9.40997
달	-9.41068
이날	-9.41097
직	-9.41157
▁달러	-9.41381
즈	-9.41415
▁공동	-9.41436
▁생산	-9.41522
▁가서	-9.41528
▁피자	-9.4154
▁비해	-9.41553
▁보도	-9.41605
자가	-9.41617
▁후보자	-9.41739
▁황	-9.41781
▁어때요	-9.41843
▁지냈어	-9.41982
▁26	-9.42014
▁사태	-9.42044
▁활용	-9.421
▁사랑을	-9.42133
창	-9.42145
▁그건	-9.42288
▁가능한	-9.42349
▁것이라고	-9.42806
▁예산	-9.42837
▁일은	-9.42837
▁위해서는	-9.42899
▁길	-9.42903
▁보내	-9.42945
▁금융	-9.42952
▁경쟁	-9.42995
▁변화	-9.43016
▁만날	-9.43077
같은	-9.4319
찬	-9.43205
▁카톡	-9.4325
▁크다	-9.43343
▁자유	-9.43402
▁서비스를	-9.43558
▁문제는	-9.43574
설	-9.43625
▁확보	-9.4368
사업	-9.44038
▁대상	-9.44071
했습니다	-9.4408
▁활동	-9.44093
▁만난	-9.44143
와의	-9.44156
▁때까지	-9.44228
▁스포츠	-9.44281
▁지금까지	-9.44315
니까요	-9.44325
장을	-9.44469
▁치	-9.44492
▁직업이	-9.44514
▁공급	-9.4454
▁있었어	-9.44548
▁얻	-9.44594
에선	-9.44606
이라도	-9.44644
▁의원이	-9.44646
▁신규	-9.44659
▁있던	-9.4467
▁평균	-9.44691
▁가능하다	-9.44796
▁아시아	-9.44862
▁대해서	-9.44884
▁합니다	-9.45088
판	-9.45112
▁가격	-9.45129
▁못해	-9.45161
▁아직도	-9.45172
올	-9.45232
▁원하는	-9.4533
▁비가	-9.45392
▁노력	-9.45401
▁그동안	-9.45468
▁직원	-9.4551
▁국회에서	-9.45637
▁기반	-9.45716
▁입장	-9.45771
▁여부	-9.45826
니까	-9.45913
▁머리	-9.45976
▁국제	-9.46044
▁기억	-9.46139
▁넘	-9.46273
▁외국인	-9.46303
▁자체	-9.46346
▁정상	-9.46373
▁경험	-9.46375
▁때문	-9.46429
▁회복	-9.46461
행	-9.46472
저	-9.46631
▁와우	-9.46772
▁어디에	-9.46805
중국	-9.46891
▁수석	-9.46945
▁신청	-9.47012
▁저녁은	-9.47041
▁정부는	-9.47129
력	-9.47216
▁이젠	-9.47278
▁열고	-9.47294
▁위험	-9.47303
▁힘드네	-9.47314
미국	-9.47354
크	-9.4738
▁배치	-9.4751
▁정신	-9.47546
▁롯데	-9.47608
▁아니야	-9.47659
▁마음에	-9.47741
▁맡	-9.47795
학년	-9.47841
▁출시	-9.47896
▁중에	-9.4796
▁기능	-9.4799
열	-9.48032
구나	-9.48084
▁공개	-9.48136
▁절차	-9.48341
으로서	-9.48359
▁현	-9.48394
토	-9.48444
▁모르겠어	-9.48475
▁끝냈다	-9.48623
하거나	-9.48723
▁절대	-9.48729
8	-9.48769
▁주말	-9.4878
▁같은데	-9.48814
▁부동산	-9.48829
▁말할	-9.48895
▁나라	-9.48921
▁죽	-9.49042
▁즐기고	-9.49071
망	-9.49111
▁위기	-9.49165
▁은행	-9.49257
점을	-9.49395
▁힘이	-9.49396
▁여자친구	-9.4943
업체	-9.49479
이지만	-9.4951
▁배우	-9.49562
▁종	-9.49681
백	-9.49946
▁각각	-9.50101
▁능력	-9.50115
▁후에	-9.5015
▁기준	-9.50243
레	-9.50317
그것은	-9.50318
▁시대	-9.50325
▁우리의	-9.50384
▁나만	-9.50536
▁영국	-9.50578
▁덜	-9.50583
▁말한	-9.50605
▁대해서도	-9.50625
▁설명	-9.50632
돼야	-9.50636
▁추	-9.50658
▁사랑은	-9.50686
▁나가	-9.50776
▁리	-9.50843
으며	-9.50877
▁글을	-9.50955
씩	-9.50966
▁되	-9.50991
▁뜻을	-9.51186
▁발	-9.51386
관리	-9.514
▁성적	-9.51446
▁바탕	-9.51451
▁계기	-9.51507
▁나중에	-9.51531
▁좋았어	-9.51597
▁친한	-9.5161
▁시작했다	-9.51618
▁관한	-9.51641
▁직장에서	-9.51746
▁주변	-9.51748
통	-9.51824
출	-9.52045
▁가끔	-9.52091
▁자리	-9.5213
▁남자친구	-9.52158
▁하면서	-9.52175
▁너에게	-9.52224
▁한반도	-9.52424
▁간다	-9.52441
더라도	-9.52511
불	-9.52539
▁좋아하고	-9.52553
친	-9.52555
▁치료	-9.52645
▁소속	-9.52657
▁않으면	-9.52723
▁너를	-9.52752
▁상당	-9.52822
▁연락이	-9.52857
▁국민들	-9.52869
▁방안을	-9.52886
▁편	-9.52888
▁떠나	-9.52908
▁예술	-9.52919
이라	-9.52947
▁연속	-9.52956
▁원칙	-9.53128
▁강아지	-9.53161
▁과거	-9.53396
▁남편	-9.53419
▁무엇이	-9.53427
▁삼	-9.53506
했는데	-9.53584
카	-9.53589
▁일반	-9.53598
하기로	-9.53625
▁준	-9.5369
▁이는	-9.53752
▁사업을	-9.53865
▁만에	-9.53976
▁모습	-9.54051
▁잘하고	-9.54066
범	-9.54126
▁속에	-9.54228
▁알려졌다	-9.54299
▁맞	-9.54396
▁자금	-9.54474
▁번째	-9.5449
▁주세요	-9.54536
▁이번에	-9.54664
▁휴식을	-9.54735
▁권	-9.54744
▁총리	-9.54794
▁인	-9.54903
▁외	-9.54965
▁대출	-9.5499
▁이와	-9.55034
▁사실을	-9.55045
▁차례	-9.55065
▁내부	-9.55273
▁실적	-9.55347
▁만	-9.55379
▁아이들이	-9.55459
▁헤어진	-9.55496
▁정당	-9.55541
▁기회가	-9.5556
▁요리	-9.55772
체	-9.55823
▁부상	-9.55885
▁아니지만	-9.55892
▁때가	-9.55893
▁가져	-9.55914
다른	-9.56114
▁잘지내고있어	-9.56152
▁앞에	-9.56329
▁백	-9.56443
▁사장은	-9.56456
▁의사	-9.56471
냐	-9.56666
▁거래	-9.56727
▁28	-9.56799
▁순간	-9.56844
▁성공	-9.56943
▁기관	-9.57041
▁내려	-9.5721
▁실제	-9.57246
씬	-9.57254
▁선택	-9.57264
▁갑자기	-9.57306
▁자전거	-9.57341
▁몰라요	-9.5738
▁완전히	-9.57383
▁신고	-9.57603
▁인기	-9.57706
▁예상	-9.57844
북한	-9.58013
▁좋겠	-9.58022
▁결과를	-9.58048
▁당장	-9.58161
해주세요	-9.58188
▁봐	-9.58304
순	-9.58365
▁둘	-9.58368
▁운동을	-9.58554
▁설치	-9.58582
▁꿈	-9.58667
▁인정	-9.58674
당시	-9.58688
▁매출	-9.58727
▁생계를	-9.58775
▁않도록	-9.588
▁어떨까요	-9.58802
▁감	-9.58803
▁발사	-9.58815
▁이상의	-9.58868
▁동시에	-9.5887
▁주식	-9.58883
위를	-9.58892
▁보호	-9.58901
▁얼굴	-9.58931
▁코	-9.58957
집	-9.59
▁잘지내고	-9.59021
아울러	-9.59068
▁도전	-9.59136
▁이러한	-9.59148
▁계약	-9.59172
▁나왔다	-9.59186
씨	-9.59234
▁사이	-9.59288
하라	-9.59323
▁풀	-9.5935
억원을	-9.59369
▁대표가	-9.59391
▁희망	-9.59395
▁27	-9.59435
▁없다는	-9.59618
▁않	-9.59624
▁강한	-9.59704
▁반면	-9.59709
▁비롯	-9.59749
▁훈련	-9.5979
▁정리	-9.59795
▁열어	-9.59902
송	-9.59946
▁피자를	-9.59981
▁나온	-9.60044
▁발언	-9.60056
손	-9.60099
정책	-9.60163
▁송	-9.60172
▁40	-9.60203
▁짝남	-9.60253
▁경	-9.60257
▁사전	-9.60265
▁밝힌	-9.60314
▁먹었어	-9.60324
▁늦게	-9.60338
▁돌아왔다	-9.60343
▁아니냐	-9.60349
▁있었던	-9.60356
▁몇몇	-9.60402
▁높다	-9.60478
규	-9.60488
▁들었다	-9.60498
▁인터뷰에서	-9.60536
▁주택	-9.60543
증	-9.60631
▁아마도	-9.60787
▁물어	-9.60801
▁취미가	-9.60878
▁알게	-9.60934
▁활동을	-9.60977
▁여기서	-9.61004
▁먹을	-9.61031
이니	-9.61032
▁생각하고	-9.61096
봅니다	-9.61109
▁이들	-9.61116
보다는	-9.6125
▁언제	-9.61298
▁재정	-9.6131
▁적용	-9.61465
▁부담	-9.61485
▁아이들	-9.61581
▁기본	-9.61593
우리는	-9.61623
▁아파	-9.61639
▁대회	-9.61671
▁29	-9.61702
▁생각하는	-9.61712
▁야당	-9.61716
▁그렇지	-9.61792
훨	-9.61874
▁단순	-9.61909
▁바래	-9.61915
▁빠른	-9.61924
시킬	-9.61965
추	-9.61976
▁귀	-9.61994
▁소리	-9.61997
▁이유로	-9.62153
▁조정	-9.62182
▁은퇴	-9.62333
▁정치적	-9.62335
이죠	-9.62347
▁곳	-9.62701
하러	-9.62845
▁광주	-9.6292
너는	-9.62921
▁보지	-9.62988
▁창출	-9.6299
▁고용	-9.63074
▁스	-9.63091
▁변	-9.63118
▁운전	-9.63168
▁위원장	-9.63172
▁보내는	-9.63234
▁말하는	-9.6332
과의	-9.63437
▁아름다운	-9.63473
케	-9.63478
▁준비가	-9.63521
▁여야	-9.63537
았다	-9.63544
▁주고	-9.63631
하려고	-9.63662
박근혜	-9.63669
▁다만	-9.63733
▁보수	-9.6376
▁전날	-9.63763
▁모르는	-9.63827
검찰	-9.63834
▁통한	-9.63988
▁상대로	-9.64003
▁힘들다	-9.64029
서는	-9.64033
지난해	-9.6407
▁어머니	-9.64123
▁지급	-9.6447
▁주민	-9.64573
응	-9.6463
평	-9.64653
▁명의	-9.64705
▁불구하고	-9.65088
▁점점	-9.65102
▁거쳐	-9.65125
▁허	-9.65148
▁맞아	-9.65215
▁사실이	-9.65218
예요	-9.65348
그룹	-9.65392
▁자연	-9.65467
▁잠	-9.65511
▁도입	-9.65532
▁대책	-9.65657
▁선수들	-9.65693
▁시도	-9.65702
▁되었다	-9.65804
입	-9.65824
▁중이다	-9.65828
▁부분이	-9.65891
▁정권	-9.65906
▁직업을	-9.65933
▁파	-9.65989
▁지나	-9.66016
▁놓고	-9.66035
속	-9.66248
▁그들을	-9.66256
사회	-9.66503
▁모바일	-9.66504
▁지지	-9.66583
▁건설	-9.66624
▁안에	-9.6668
▁야구	-9.66698
▁아니에요	-9.66718
▁짝남이	-9.66739
▁동물	-9.66886
▁넘어	-9.67016
▁독일	-9.67021
골	-9.67047
▁사드	-9.67157
▁당신의	-9.67182
되어	-9.6721
▁금리	-9.67241
▁키가	-9.67245
월부터	-9.67255
▁받지	-9.67342
▁실제로	-9.67426
▁경영	-9.67428
▁B	-9.67456
▁놀고	-9.67461
티	-9.67469
▁누가	-9.67546
▁최근에	-9.67558
▁교사	-9.6756
▁야	-9.67755
▁프랑스	-9.68004
정보	-9.68031
이기	-9.68214
▁조건	-9.68316
▁수익	-9.68328
▁있었으면	-9.684
▁불러	-9.68402
▁모른다	-9.68432
▁비판	-9.68447
▁과제	-9.68515
▁의해	-9.6853
▁행동	-9.68553
▁사실상	-9.68556
▁다소	-9.68667
작	-9.68803
살이야	-9.68915
▁보이는	-9.68942
성이	-9.69002
▁성과를	-9.69006
▁쓰	-9.69025
▁담당	-9.6903
▁딸	-9.69045
▁개정	-9.69087
애	-9.69167
월에	-9.69172
▁그래도	-9.69188
▁잔	-9.69555
▁북한이	-9.69726
▁K	-9.6977
전을	-9.69794
▁공연	-9.69887
센터	-9.69949
▁어린	-9.69949
▁벗어나	-9.6999
▁수술	-9.70026
▁별	-9.70231
새	-9.70245
하겠다는	-9.70278
▁복지	-9.70335
▁1000	-9.70336
▁차원에서	-9.70393
▁친구들과	-9.70444
느냐	-9.70485
별로	-9.7051
▁아는	-9.70566
▁마무리	-9.70767
▁눈을	-9.7082
▁이벤트	-9.70853
▁구조	-9.70893
▁방안	-9.70893
▁앞에서	-9.70912
너	-9.70949
▁했지만	-9.70976
▁지원을	-9.70999
▁거라	-9.71032
림	-9.71056
▁표현	-9.71108
▁취지	-9.71116
▁날이	-9.71128
▁있어야	-9.71265
▁대로	-9.71268
▁도시	-9.71424
▁감정	-9.7145
▁사랑해	-9.7154
▁위해서	-9.71554
▁김씨	-9.71631
채	-9.71687
▁보여	-9.71714
▁조치를	-9.71791
▁부모님	-9.71793
▁꾸준히	-9.71807
▁각종	-9.71834
▁무슨일이야	-9.7191
▁마케팅	-9.71911
▁딱	-9.71919
▁해소	-9.71959
▁쇼	-9.72005
▁기다리고	-9.7204
령	-9.72069
▁들어가	-9.72218
▁미사일	-9.72225
▁갔다	-9.72271
▁상태	-9.72284
▁실	-9.72317
▁학생들	-9.7234
▁직장	-9.72509
주는	-9.72533
▁쉬는	-9.72571
광	-9.72635
졌다	-9.72651
▁사귀	-9.72705
▁규제	-9.72742
말	-9.72747
리그	-9.72782
거라	-9.72826
▁가기	-9.73019
▁자리를	-9.7304
▁핵	-9.73186
▁속에서	-9.73318
▁바람	-9.73323
▁사이에	-9.73365
▁외교	-9.73378
▁동물을	-9.73417
▁평화	-9.73417
▁학교에서	-9.73452
▁인생	-9.7346
▁어려워	-9.73466
▁나한테	-9.73532
▁벌써	-9.73588
▁쉬운	-9.73666
▁현실	-9.73674
▁훌륭해	-9.73676
기업	-9.73684
▁코치	-9.73756
봉	-9.73778
▁이익	-9.73796
▁맛있는	-9.73822
약	-9.73882
▁지켜	-9.73886
▁사랑의	-9.73919
시키는	-9.73949
▁해변	-9.73953
▁법안	-9.73991
▁대구	-9.74009
▁다르다	-9.74037
그런	-9.74097
▁혐의로	-9.74098
▁즐기는	-9.7411
▁유지	-9.74169
▁보이고	-9.74185
▁사진	-9.74238
기술	-9.74306
했으며	-9.74309
▁했던	-9.74315
▁약속	-9.74328
▁이전	-9.74469
▁분위기	-9.74618
▁러시아	-9.74649
문화	-9.74697
▁시기	-9.74746
▁점검	-9.7479
▁하다	-9.748
m	-9.74905
▁나올	-9.74916
▁밴드	-9.74968
▁만나는	-9.75128
▁공격	-9.75191
▁그거	-9.75222
▁소비	-9.75244
▁바라요	-9.75384
▁예상된다	-9.7539
▁아무것도	-9.75402
▁조금씩	-9.75406
▁문제에	-9.75407
자는	-9.75434
▁미리	-9.75437
▁잘못	-9.75488
▁중소기업	-9.75511
▁깊은	-9.75576
▁요가	-9.75589
▁너도	-9.75629
▁금	-9.75641
▁돌	-9.75697
▁세월호	-9.75718
복	-9.75738
▁뿐이다	-9.75777
▁최종	-9.75821
▁전망	-9.75875
▁길을	-9.75925
▁관련된	-9.7593
▁재판	-9.76
▁대해선	-9.76083
내가	-9.7619
▁뜻	-9.76208
키	-9.76238
▁민간	-9.76244
▁이유를	-9.76304
▁위협	-9.76329
▁연락을	-9.76407
런	-9.76435
▁믿어	-9.76455
팀	-9.76482
▁화	-9.76515
▁목적	-9.76551
금융	-9.76584
▁설립	-9.76651
▁점에서	-9.76672
서울	-9.76684
▁머리를	-9.767
▁한달	-9.76705
협회	-9.76736
▁다르	-9.76743
▁의지	-9.76831
▁답	-9.76848
▁컴퓨터	-9.76875
▁시행	-9.76927
▁인수	-9.76932
▁디자인	-9.77127
하던	-9.77131
▁눈에	-9.77146
▁찾고	-9.77158
▁스마트폰	-9.77217
▁요리하는	-9.77365
▁말아	-9.77374
▁위로	-9.77402
▁구체적인	-9.77411
다가	-9.77646
▁커	-9.77755
많은	-9.77774
▁말한다	-9.77828
▁것인지	-9.77861
▁중단	-9.77877
▁인간	-9.77911
산업	-9.78102
뿐	-9.78215
▁쓰고	-9.78383
었어	-9.78461
▁좋아할	-9.78544
▁스포츠를	-9.78564
▁주가	-9.78619
▁총리는	-9.78656
▁얼마	-9.78659
▁피해를	-9.7867
▁제한	-9.78678
격	-9.78693
▁식	-9.78931
▁통과	-9.7899
▁확실히	-9.79021
할까	-9.79028
▁기쁘다	-9.79055
▁""'	-9.79058
▁노력하겠다	-9.79066
장이	-9.7908
▁재미있는	-9.79135
▁없지만	-9.79142
▁저녁에	-9.79159
▁분야	-9.79161
씨의	-9.79211
▁이유	-9.7923
터	-9.79247
▁그룹	-9.79319
▁탈	-9.7932
▁진술	-9.79342
▁유럽	-9.79435
▁쇼핑	-9.79461
낼	-9.79592
하기도	-9.79629
어떻게	-9.79661
그동안	-9.79663
▁와서	-9.79755
▁경기도	-9.79806
사를	-9.79816
▁만약	-9.79949
▁언론	-9.80019
▁공사	-9.80035
년부터	-9.80064
▁이별은	-9.80187
패	-9.80212
▁안보	-9.8042
▁예	-9.8045
▁취업	-9.80469
▁홍보	-9.80533
밖에	-9.80615
▁한다고	-9.80624
더니	-9.80651
▁찾는	-9.80679
은행	-9.80724
▁사장	-9.80756
색	-9.80759
▁기업의	-9.80844
▁따	-9.80856
▁촉구했다	-9.80919
▁매각	-9.8094
▁않지만	-9.80942
▁피곤하다	-9.80952
▁모르겠다	-9.80961
▁충분한	-9.81013
▁누	-9.81028
▁본인	-9.81037
▁구축	-9.81055
▁기록했다	-9.81078
▁뉴스	-9.81164
▁가야	-9.81263
▁어려움을	-9.81334
칠	-9.81348
▁공무원	-9.81435
기에	-9.81498
▁처음으로	-9.81536
▁없네	-9.81582
▁하이킹을	-9.81589
▁역량	-9.81658
▁적어	-9.81747
▁이별을	-9.8176
▁구속	-9.81769
▁날씨	-9.81855
▁걸어	-9.81856
▁개들	-9.81859
▁색	-9.81866
듯	-9.81909
▁자료	-9.81931
▁구매	-9.81986
성을	-9.82005
였던	-9.82097
▁말해봐	-9.82116
지원	-9.82132
30	-9.82155
제가	-9.82169
▁모델	-9.82169
▁아픔	-9.82229
투	-9.82303
▁소득	-9.82355
▁작품	-9.82527
하자	-9.82568
▁그를	-9.82611
▁사건을	-9.82653
▁혜택	-9.82662
▁여행을	-9.82691
시켜	-9.82699
▁결코	-9.82907
▁전달	-9.82954
▁분석했다	-9.82971
▁31	-9.83012
▁누구나	-9.8303
▁잘못된	-9.83042
▁근거	-9.83045
▁우리나라	-9.83154
▁향상	-9.83194
▁제재	-9.83232
▁직원들	-9.83232
▁지적	-9.83307
▁보면서	-9.83354
있어	-9.83522
▁제공	-9.83573
▁대학에	-9.83577
▁필요성	-9.83622
▁어디에서	-9.83677
이든	-9.83714
▁투수	-9.83722
▁마치고	-9.8379
▁되기	-9.83828
▁광고	-9.83842
위에	-9.83855
▁약간	-9.83859
▁자체가	-9.8388
▁취미는	-9.83888
▁중심	-9.83986
권을	-9.8402
▁소송	-9.84136
라면	-9.84173
▁서울시	-9.84211
▁이동	-9.84214
▁옷을	-9.84228
▁장기	-9.84387
▁만든	-9.84387
▁저녁을	-9.84389
▁아울러	-9.844
▁그들이	-9.84407
▁집행	-9.84436
▁여름	-9.84467
▁그만	-9.84518
이자	-9.84641
▁검사	-9.84696
▁대사	-9.8471
▁어땠	-9.8473
▁아파트	-9.84737
▁제주	-9.84768
▁얼른	-9.84781
▁가까이	-9.84782
▁그가	-9.84787
▁없다고	-9.84837
▁대형	-9.8484
▁투표	-9.84848
▁시장에	-9.84895
▁더불어민주당	-9.849
▁2017	-9.84907
▁모아	-9.8491
▁목	-9.84912
▁행복한	-9.85016
▁국정원	-9.85089
▁이뤄지	-9.85106
국민	-9.85113
▁관련해서	-9.85117
▁현대	-9.85177
▁준비하고	-9.85195
▁만든다	-9.85195
▁뭐가	-9.85197
▁다하겠다	-9.85197
▁노력하고	-9.8523
▁고등학교	-9.85411
옥	-9.85414
지를	-9.85452
▁유치	-9.85464
대단해	-9.85545
▁기다려	-9.85557
▁영업	-9.85562
▁밤에	-9.85719
▁취미	-9.85768
이제	-9.85812
▁키우	-9.85824
▁몰라	-9.85898
락	-9.85921
▁파악	-9.85989
▁상장	-9.86043
▁활성화	-9.8621
▁호텔	-9.86232
십니까	-9.86254
▁벌	-9.86303
▁인식	-9.8636
▁남자가	-9.86468
와우	-9.86618
▁국정	-9.86651
▁사람도	-9.86653
이라면서	-9.86672
▁특검	-9.8679
▁따뜻한	-9.86819
▁싶은데	-9.86846
▁뭔가	-9.86848
▁직후	-9.8688
▁있죠	-9.86892
▁미안해	-9.86992
▁체험	-9.8703
▁안된다	-9.87109
▁강력한	-9.87181
처	-9.87251
▁먹는다	-9.87251
▁되길	-9.87274
▁집회	-9.87318
▁비롯해	-9.87367
▁지속	-9.87424
▁상황에	-9.87428
▁바다	-9.87503
▁점이	-9.87529
▁조금만	-9.87594
투자	-9.87601
▁인력	-9.87613
▁역	-9.87645
▁개와	-9.87646
▁교체	-9.87682
▁알려	-9.87779
▁업체	-9.87784
▁그렇다	-9.87831
▁피해자	-9.87844
▁예방	-9.87846
▁음식은	-9.87935
▁이사장	-9.88007
▁집을	-9.88049
▁호	-9.88095
▁숨	-9.88165
▁대기업	-9.88329
▁먹어	-9.8836
▁이미지	-9.88398
▁특정	-9.88445
▁노래를	-9.88466
▁것보다	-9.88483
▁우수	-9.88527
▁지냈	-9.88553
외	-9.88594
▁그것에	-9.8864
▁전문가	-9.88676
▁좋을까	-9.88708
인가	-9.88732
기가	-9.88733
▁믿	-9.88765
▁이것	-9.88804
▁불안	-9.88806
▁늘	-9.88824
▁오랫동안	-9.88861
▁구단	-9.88916
▁전망했다	-9.88923
▁발생한	-9.88924
▁보장	-9.88928
투자증권	-9.8893
▁괜찮아요	-9.88947
▁제출	-9.88959
▁부사장	-9.89003
아직	-9.89025
▁차량	-9.89037
▁사례	-9.89047
▁마시고	-9.89166
▁2012	-9.89175
▁남편이	-9.89175
▁질문	-9.89269
국내	-9.89283
까운	-9.8931
▁트럼프	-9.89405
▁하락	-9.89435
품	-9.89455
국회	-9.89484
▁나온다	-9.89513
둔	-9.89584
국가	-9.89612
▁시장에서	-9.89614
▁꽃	-9.89769
버	-9.89871
▁지정	-9.90023
▁중요해	-9.90036
▁만들기	-9.90073
▁그녀의	-9.90265
▁개최	-9.90367
▁양국	-9.90541
▁아마	-9.90593
시킨	-9.90653
▁남북	-9.90697
되면	-9.90733
군은	-9.90773
▁전화를	-9.90785
▁옷	-9.90832
▁분명	-9.90883
▁나타났다	-9.90924
▁개편	-9.90927
▁스타일	-9.90966
▁슬프다	-9.90984
▁결과가	-9.91037
▁자유한국당	-9.91051
▁콘텐츠	-9.91076
▁케이크	-9.91077
▁높이	-9.91112
▁쓸	-9.9116
팀장은	-9.91198
▁재미있을	-9.91239
▁물론이지	-9.91255
▁방송	-9.91356
▁현상	-9.91438
▁사람들에게	-9.91445
▁냈다	-9.91447
▁통화	-9.91592
▁청년	-9.91606
증권	-9.91666
▁이유가	-9.91749
새누리당	-9.91795
청와대	-9.91795
▁영	-9.91845
▁화가	-9.91862
월까지	-9.91917
▁아침에	-9.91937
▁그리	-9.91986
▁의지를	-9.92091
▁압박	-9.92155
20	-9.92158
기간	-9.9217
▁일어나	-9.92211
대학	-9.92239
▁감소	-9.92375
편	-9.92438
▁정원	-9.92443
▁자신	-9.92534
▁경우가	-9.92592
▁변화를	-9.9264
▁통	-9.92644
▁에너지	-9.92656
전에	-9.92678
▁한계	-9.92733
▁가정	-9.92745
▁피부	-9.92787
▁거듭	-9.92801
▁처벌	-9.92834
년에	-9.92932
변	-9.92933
화를	-9.93003
▁작가	-9.93015
▁아이를	-9.93023
항	-9.93042
▁들어왔어	-9.93049
▁위하여	-9.93056
▁끝나	-9.93097
년이	-9.93099
▁검증	-9.93103
절	-9.93246
▁생각보다	-9.9326
▁선정	-9.93263
조사	-9.93421
▁청구	-9.93441
게임	-9.93445
▁접	-9.93505
덕	-9.93517
▁도움을	-9.93519
왕	-9.93566
▁제품을	-9.9367
▁시절	-9.93675
▁반응을	-9.93721
▁질	-9.9376
▁하늘	-9.93805
▁못할	-9.93833
▁시민	-9.93887
▁재판부는	-9.93897
▁소통	-9.93909
▁연기	-9.93946
마리의	-9.93985
▁그런데	-9.9402
▁축하해	-9.94102
▁아이들은	-9.94102
▁자세	-9.94136
▁시장은	-9.94146
그래서	-9.94228
▁비교	-9.94238
학교	-9.94243
▁기타	-9.94305
▁영어	-9.94349
곳	-9.94498
▁뿐만	-9.94523
▁인천	-9.94533
▁동의	-9.94534
▁사기	-9.94584
▁감독이	-9.9461
▁적은	-9.94708
워	-9.94798
▁커피를	-9.94842
했을	-9.9486
▁물건	-9.94886
▁시장을	-9.94923
▁진실	-9.95015
▁맘	-9.95028
▁도발	-9.95054
▁사니	-9.95101
▁카페	-9.95125
▁위반	-9.95201
▁제안	-9.95206
▁아픈	-9.9528
▁계획을	-9.95449
▁원인	-9.95459
▁재미	-9.95502
▁변경	-9.95521
▁뿐이야	-9.95532
▁통화에서	-9.9568
▁손을	-9.95707
▁검찰은	-9.95719
▁가입	-9.95733
▁주민들	-9.95772
▁낚시	-9.95786
▁아이들과	-9.95793
▁사안	-9.95865
▁가능	-9.95873
▁별도	-9.95934
필	-9.95971
▁창업	-9.96007
▁좋아하지만	-9.96065
▁거짓말	-9.96221
▁가족과	-9.96316
▁여유	-9.96333
언	-9.96352
▁못한다	-9.96429
▁지방	-9.96465
▁친구들	-9.9651
▁참가	-9.96547
들에	-9.9655
▁길이	-9.96595
▁쇼를	-9.96631
▁도서관	-9.96687
▁공정	-9.96769
▁비용	-9.96787
▁임기	-9.96802
전략	-9.9701
힐	-9.97026
G	-9.97139
▁많	-9.97139
다면	-9.97211
▁남은	-9.97244
▁부담을	-9.97357
▁슬픈	-9.97429
▁갖춘	-9.97429
▁SNS	-9.97471
▁밝	-9.9748
▁곳에	-9.9748
▁넘는	-9.975
▁방법을	-9.97503
▁끝난	-9.97532
▁환자	-9.97539
▁학습	-9.97557
▁리스크	-9.9756
▁원장	-9.97563
▁파티	-9.97593
▁발표했다	-9.97639
▁않겠다	-9.97662
▁않게	-9.97673
▁테러	-9.97677
표	-9.97719
코	-9.97758
▁들고	-9.97783
▁청소	-9.97793
▁공약	-9.97797
▁관계를	-9.97859
▁국민이	-9.97872
▁신경	-9.97903
▁것인가	-9.97955
▁계기로	-9.97962
▁뭐야	-9.97983
▁생각이야	-9.98008
▁그럼	-9.98025
▁짝녀가	-9.98085
▁펀드	-9.98121
▁낸	-9.98136
▁전력	-9.98179
▁성격	-9.98223
▁현지	-9.98387
▁생	-9.98414
▁곳에서	-9.98415
▁심사	-9.98441
▁글	-9.98473
▁최대한	-9.98503
병원	-9.9857
▁높	-9.986
가지	-9.98601
▁제공하	-9.98692
▁우려가	-9.98731
▁이어지	-9.98817
▁회의	-9.98857
수를	-9.98872
▁복	-9.98887
▁방향	-9.98894
책	-9.98914
▁폭	-9.9899
▁전공	-9.9913
인한	-9.99143
▁요청	-9.99307
▁생각나	-9.99331
▁종합	-9.99343
▁체결	-9.99493
▁지도부	-9.99494
▁신뢰	-9.99515
▁출신	-9.99598
▁여자가	-9.99687
▁꿈을	-9.99693
▁팬들	-9.99712
▁대규모	-9.99717
▁왜냐하면	-9.99717
▁즐거운	-9.99719
서비스	-9.99758
▁여의도	-9.99814
▁존재	-9.99822
▁관광	-9.99834
▁발언을	-9.9987
▁2018	-9.99873
진다	-9.99899
▁추세	-9.99935
▁괜찮다	-9.9996
▁강하게	-9.99965
▁중앙	-9.99982
S	-9.99984
기관	-10.0002
▁부탁	-10.0003
들도	-10.0004
▁베	-10.0018
▁짐	-10.0018
▁70	-10.0024
K	-10.0025
▁국방부	-10.0026
한다면	-10.0027
▁오세요	-10.0028
▁사람들을	-10.0028
▁조작	-10.003
낸	-10.0034
정부는	-10.0038
▁것이라는	-10.0039
지내니	-10.0044
▁과정	-10.0045
▁주의	-10.0047
▁삶의	-10.0053
e	-10.0056
▁체계	-10.0073
▁키	-10.0073
▁마치	-10.0076
▁홈페이지	-10.0078
보고	-10.0089
▁삶을	-10.0089
▁외교부	-10.0089
▁축소	-10.009
▁주말은	-10.0091
▁경험이	-10.0093
▁부문	-10.0096
바로	-10.0103
▁조기	-10.0106
▁연습을	-10.0115
▁소비자	-10.0131
년대	-10.0137
주의	-10.0146
▁동료	-10.0147
▁행정	-10.0149
▁돈이	-10.0152
▁아빠	-10.0161
▁입고	-10.0176
환경	-10.0187
▁대전	-10.0188
▁이제는	-10.0189
▁건물	-10.0194
▁잘했어	-10.0201
▁훌륭한	-10.0203
▁드러냈다	-10.0203
▁핵실험	-10.0203
함으로써	-10.0204
▁2013	-10.0204
▁스테이크	-10.0204
▁2010	-10.0205
▁프로젝트	-10.0207
▁보러	-10.0208
카드	-10.0211
▁많지	-10.0215
▁방침	-10.0216
▁총재	-10.0217
▁진심으로	-10.022
▁담배	-10.0221
▁재회	-10.0221
▁판단했다	-10.0221
▁뛰	-10.0223
▁너와	-10.0226
▁지금도	-10.0226
▁메시지	-10.023
▁협상	-10.023
▁생각하지	-10.0232
▁봤다	-10.0236
▁해볼까	-10.0237
▁마리	-10.0239
▁입을	-10.0241
▁시장의	-10.0242
▁열리는	-10.0243
▁영상	-10.0251
▁마음의	-10.0252
▁60	-10.0252
차례	-10.0253
▁대북	-10.0254
번째	-10.0271
▁골	-10.028
충	-10.0283
하나	-10.0285
▁달성	-10.0291
▁특별	-10.0293
종일	-10.0297
▁당신을	-10.0298
다시	-10.0305
▁해석	-10.0308
▁잡	-10.0326
▁극	-10.0329
▁배경	-10.0337
▁이상한	-10.0337
▁찍	-10.0343
▁지키	-10.0344
▁평소	-10.0344
▁빚	-10.0351
▁기사	-10.0357
▁확산	-10.0372
▁카드	-10.0373
▁연장	-10.0379
▁노력하는	-10.0387
▁고생	-10.0391
B	-10.0396
▁노동	-10.0396
▁새로	-10.0397
▁하며	-10.04
▁고려	-10.0405
▁프로	-10.0408
▁하려고	-10.0413
▁연습	-10.0415
욱	-10.0418
▁완전	-10.0422
▁부진	-10.0433
▁엄청	-10.0437
▁훈련을	-10.0438
▁써	-10.0439
▁시설	-10.044
▁알았는데	-10.0441
▁핸드폰	-10.0441
▁전북	-10.0443
▁전쟁	-10.0445
▁전해졌다	-10.0447
▁사퇴	-10.0448
▁국제사회	-10.0456
▁언어	-10.0457
▁보도했다	-10.0458
50	-10.0467
▁이행	-10.0469
업계	-10.0469
s	-10.0475
▁채용	-10.0477
▁다수	-10.0482
▁있었	-10.0483
▁괜찮은	-10.0484
▁불만	-10.0493
▁부족한	-10.0495
막	-10.0496
▁있기를	-10.05
▁세상	-10.0506
C	-10.0512
▁천	-10.0521
시스템	-10.0525
으나	-10.0528
▁관계자	-10.0529
▁망	-10.0535
▁관	-10.0538
▁관련한	-10.0542
o	-10.0546
▁쓰는	-10.0549
▁인근	-10.0552
제도	-10.0553
시즌	-10.0561
▁둔	-10.0561
▁199	-10.0567
▁공을	-10.0571
거래	-10.0576
▁민	-10.0581
군요	-10.0589
됐	-10.0595
▁맺	-10.0595
▁가족이	-10.0597
y	-10.0598
▁국	-10.0599
▁가면	-10.061
액	-10.0612
임을	-10.0616
▁운용	-10.0631
이상	-10.0636
▁보이지	-10.0639
▁올리	-10.0648
시는	-10.0664
향	-10.0665
목	-10.0666
▁한미	-10.0666
▁주지	-10.067
회견	-10.0672
▁않는다면	-10.0675
▁타격	-10.0678
▁젊은	-10.0679
▁눈이	-10.0679
츠	-10.0682
▁내다봤다	-10.0685
▁들린다	-10.0685
▁단계	-10.0686
하려	-10.0687
▁조언	-10.0688
▁기대된다	-10.0688
▁청	-10.0688
▁미세먼지	-10.0689
▁하나씩	-10.069
▁빠르게	-10.0692
▁저녁이야	-10.0696
▁하자	-10.0697
▁방지	-10.0697
▁봤어	-10.07
▁좋은아침이야	-10.07
▁언제나	-10.0701
▁여기에	-10.0701
▁아이폰	-10.0702
▁지시	-10.0703
▁이어질	-10.0703
▁분명히	-10.0703
▁2011	-10.0703
▁계약을	-10.0709
▁범행	-10.0717
▁등록	-10.072
▁임금	-10.0723
▁안철수	-10.0727
▁최고위원은	-10.0734
▁임명	-10.0736
▁사상	-10.0738
▁자신감을	-10.0741
▁조선	-10.0747
결	-10.0755
▁이들은	-10.0755
자를	-10.076
▁비리	-10.0766
량	-10.0789
이와	-10.0791
▁증거	-10.0796
▁프로그램	-10.0798
▁미국의	-10.0802
▁G	-10.0805
▁그러	-10.0812
력이	-10.0813
▁곳으로	-10.0813
▁대표와	-10.0821
▁공원	-10.0825
▁언젠가	-10.0832
만약	-10.0832
▁수업	-10.0832
▁그녀를	-10.0834
사는	-10.0847
▁명이	-10.0856
▁민족	-10.0857
▁짝녀	-10.0857
▁업계	-10.0857
▁소개	-10.0858
께	-10.0865
▁규정	-10.087
▁장애인	-10.0874
▁평가를	-10.0888
▁미련	-10.09
▁수요	-10.0905
▁타자	-10.0907
▁외부	-10.0907
졌어	-10.0914
개발	-10.0917
조차	-10.0922
▁북	-10.0923
▁정의	-10.0924
▁맛	-10.0925
▁근로자	-10.0927
되	-10.0929
▁겪고	-10.0935
▁천천히	-10.0935
▁아이디어	-10.0936
▁이혼	-10.0942
▁소개했다	-10.0944
▁인프라	-10.0946
▁합리적	-10.0946
▁철저히	-10.0947
▁NC	-10.0949
▁소녀	-10.0955
▁먹지	-10.0957
▁적극적인	-10.0962
▁접수	-10.0962
▁요구했다	-10.0963
▁같	-10.0969
▁잘할	-10.0976
▁심리	-10.0982
▁측면에서	-10.0982
▁인사를	-10.0993
▁연락해	-10.0995
▁차이가	-10.0996
▁종목	-10.1001
▁가을	-10.1003
▁삼성전자	-10.1007
일째	-10.1009
▁사랑하고	-10.1012
탄	-10.1015
▁아니고	-10.1017
▁잘하는	-10.1018
▁고기를	-10.1018
▁초기	-10.1025
▁세금	-10.1033
▁놀	-10.1035
▁군대	-10.1036
▁만나고	-10.1037
▁작성	-10.1049
▁취미를	-10.1062
마저	-10.1066
기로	-10.1068
▁국민을	-10.1076
▁말하고	-10.1076
▁졸업	-10.1077
▁역할	-10.1079
하려는	-10.1081
▁추억	-10.1084
▁만한	-10.1088
▁여친	-10.1092
▁범죄	-10.1095
▁고위	-10.1097
▁리그	-10.1101
▁강력	-10.1103
▁수업을	-10.1104
▁교통	-10.1107
▁지역에	-10.1109
▁따라서	-10.1109
▁형	-10.111
▁통보	-10.1116
▁취하	-10.1119
▁오해	-10.1122
훈	-10.1122
▁태도	-10.1124
▁했고	-10.1124
▁숙제	-10.1125
▁접촉	-10.1126
겠지	-10.113
▁종교	-10.1132
▁않을까	-10.1135
▁수가	-10.1139
▁제작	-10.1148
▁향해	-10.1149
▁과학	-10.1152
▁엄마가	-10.1155
▁않기	-10.1157
▁한화	-10.1157
▁잠을	-10.1171
▁관광객	-10.1172
해달라	-10.1174
▁시민들	-10.1179
▁사망	-10.1179
▁찬성	-10.1181
혀	-10.1184
▁나선	-10.1191
▁싶네	-10.1191
왔다	-10.1192
▁뭐하니	-10.1195
▁복귀	-10.1196
▁미술	-10.1197
▁언급했다	-10.1198
▁있음	-10.12
▁재미있어	-10.1204
세계	-10.1206
▁부총리	-10.1207
▁뭘까	-10.1207
▁기다리는	-10.1208
▁노력해	-10.1208
▁참석	-10.1212
▁승인	-10.1216
▁2014	-10.1217
사가	-10.1217
▁당연히	-10.1219
빈	-10.1221
▁아닌가	-10.1222
▁오랜	-10.1223
▁무엇보다	-10.1224
▁버스	-10.1227
▁안다	-10.1232
▁그것들을	-10.1233
만으로	-10.1233
▁수행	-10.1239
▁나랑	-10.1239
▁병	-10.1241
함을	-10.125
균	-10.1255
단체	-10.127
총	-10.127
▁밝혀	-10.1277
▁이용해	-10.1277
해요	-10.1278
때마다	-10.1283
▁정상화	-10.1284
▁발전을	-10.1284
▁공장	-10.1301
▁주기	-10.1304
▁두산	-10.1307
▁차관	-10.1312
관련	-10.1314
없는	-10.1325
▁실패	-10.1331
▁다가가	-10.1332
앞서	-10.1336
▁작업	-10.1344
▁남친	-10.1347
과거	-10.1348
▁변화가	-10.135
▁최초	-10.1357
숙	-10.1358
▁과정을	-10.1388
▁술을	-10.1403
▁생일	-10.1408
▁관계가	-10.1409
▁나이	-10.1412
▁근무	-10.1412
스는	-10.1415
것을	-10.1419
업	-10.1419
▁감정을	-10.1423
▁출발	-10.143
▁얘기를	-10.1431
▁올려	-10.1433
▁하는지	-10.1434
▁보험	-10.1436
▁기술을	-10.1437
▁친구를	-10.1441
▁고백	-10.1442
당국	-10.145
▁구조조정	-10.1452
▁나섰다	-10.1454
▁어떡해	-10.1454
▁퇴근했어	-10.1455
▁같애	-10.1455
▁수입	-10.1455
▁대표이사	-10.1455
▁2015	-10.1456
▁신경쓰지	-10.1457
▁의무	-10.1457
답	-10.1458
대한	-10.1458
▁생길	-10.1459
▁배제	-10.1465
▁걸쳐	-10.1466
▁오후에	-10.1467
▁그러면	-10.1469
▁전망이다	-10.147
▁참석한	-10.147
겠다고	-10.1471
▁말도	-10.1474
▁그분	-10.1475
▁궁금해	-10.1475
▁고려해	-10.1476
▁300	-10.148
▁옆에	-10.1483
▁확신이	-10.1485
▁모르겠어요	-10.1487
▁유엔	-10.1489
▁방향으로	-10.149
▁그녀가	-10.1499
▁나무	-10.1506
▁헤어지고	-10.1508
▁척	-10.1509
▁소감	-10.1509
▁포	-10.1511
북한의	-10.1517
▁칼	-10.1519
▁기대하고	-10.1524
▁자산	-10.1525
▁통일	-10.1532
택	-10.1532
오는	-10.1541
▁일단	-10.1541
저는	-10.1545
살이고	-10.1551
▁생각할	-10.1561
▁능력이	-10.1562
▁부모	-10.1577
▁여러분	-10.1579
▁어린이	-10.1584
▁유통	-10.159
▁인연이	-10.1592
▁것입니다	-10.1592
▁밀	-10.1596
▁없어서	-10.1596
이면	-10.1597
▁봄	-10.1598
▁S	-10.16
▁논란이	-10.16
년까지	-10.1602
▁듣	-10.1611
▁부족	-10.1613
▁포함한	-10.1623
반면	-10.1626
▁사랑에	-10.1627
헤이	-10.1635
▁본격적	-10.1637
▁말은	-10.1642
▁페이스북	-10.1655
적이고	-10.1665
▁외국	-10.1666
▁전남	-10.1667
▁이탈리아	-10.1668
브	-10.1675
정부가	-10.169
했다는	-10.1693
▁회담	-10.1696
▁의한	-10.1696
▁무서워	-10.1697
상을	-10.1706
▁라디오	-10.1706
▁기뻐	-10.1714
▁가슴	-10.1715
▁후반	-10.1718
▁즐길	-10.1723
▁컨트리	-10.1725
▁어려울	-10.1725
▁새롭	-10.1726
▁법률	-10.1729
▁심각한	-10.173
▁완화	-10.1733
▁바쁜	-10.1734
▁행복해	-10.1736
▁잠깐	-10.1737
▁실현	-10.1739
▁사람한테	-10.1741
▁확실한	-10.1742
▁긍정적인	-10.1744
▁아내와	-10.175
▁가질	-10.1751
▁탄핵	-10.1751
지금은	-10.1754
▁국회의원	-10.1755
▁밤은	-10.1755
▁걸까	-10.1767
▁기업이	-10.1772
▁대통령과	-10.1772
▁전기	-10.1775
이었던	-10.1781
대를	-10.1786
▁정부와	-10.1791
▁수비	-10.1795
▁식사	-10.1798
▁부부	-10.1799
▁여당	-10.1799
▁발견	-10.1807
었	-10.1808
▁텐데	-10.181
▁비중	-10.1814
▁분이	-10.1816
부는	-10.1825
▁부분에	-10.183
▁정확	-10.1837
법을	-10.1837
겨	-10.1837
▁성과	-10.1842
▁계획이	-10.1845
▁교회	-10.1847
억원으로	-10.1852
회사	-10.1855
▁쉬	-10.1856
▁확정	-10.1861
▁공감	-10.1862
▁친	-10.1862
른	-10.1862
▁결정할	-10.1864
겠지만	-10.1867
척	-10.1873
▁최선	-10.1874
▁머리가	-10.1876
문재인	-10.1878
어떤	-10.1879
▁아버지	-10.1882
▁보고서	-10.1886
▁의미가	-10.1888
▁실수	-10.1896
뿐만	-10.1904
▁성격이	-10.1906
▁낼	-10.1907
쯤	-10.191
금리	-10.1912
▁티	-10.1931
▁의료	-10.1939
▁바쁘	-10.1948
▁폐지	-10.1948
▁아기	-10.1952
▁장소	-10.1964
▁나눠	-10.1969
는지	-10.1971
▁극복	-10.1979
▁존	-10.1985
시설	-10.1986
▁싸	-10.1993
▁쓴	-10.1993
링	-10.1995
▁방식	-10.2
▁예측	-10.2
▁되나	-10.2001
▁기다릴	-10.2002
▁가르친다	-10.2002
▁소개팅	-10.2002
▁바빠	-10.2003
▁초콜릿	-10.2004
▁맛있게	-10.2005
▁포함해	-10.2006
▁굉장히	-10.2008
▁후회	-10.2012
▁자리에	-10.2015
▁화장품	-10.2016
▁쪽	-10.2016
▁재미있다	-10.2017
▁표	-10.2017
▁설	-10.2017
▁만들었다	-10.202
▁커지	-10.202
▁화재	-10.2021
▁비율	-10.2028
▁맞지	-10.2031
▁인증	-10.2032
▁사람이랑	-10.2032
▁판결	-10.2033
▁회원	-10.2033
▁분들	-10.2035
▁""2	-10.2036
▁습관	-10.204
▁하게	-10.2041
향후	-10.2047
▁권력	-10.205
독	-10.2051
▁풀어	-10.2065
▁선생님	-10.2066
▁공부하고	-10.2067
▁모습이	-10.207
▁소방	-10.2071
▁않아도	-10.2077
▁정확한	-10.2077
▁생명	-10.208
쪽	-10.2081
▁갖	-10.2081
말로	-10.2083
▁내용이	-10.2088
▁아내	-10.2088
10	-10.209
▁실천	-10.2092
▁직	-10.2094
▁선수들이	-10.2098
일부	-10.2099
D	-10.2101
▁2000	-10.2103
▁철	-10.2115
체계	-10.2118
▁지사는	-10.2118
▁건지	-10.2121
▁차단	-10.2126
▁단체	-10.2131
▁자녀	-10.2131
했기	-10.2132
▁미친	-10.2133
▁하죠	-10.2137
▁정리가	-10.2138
▁등에서	-10.214
▁그들의	-10.2143
▁점심	-10.2152
조원	-10.2158
▁오늘도	-10.2159
▁발굴	-10.216
일까	-10.2163
▁공천	-10.2167
▁방법이	-10.2169
▁시간에	-10.2169
▁대표팀	-10.2171
▁때도	-10.2175
▁야구를	-10.2176
▁프로그램을	-10.2177
었던	-10.2179
▁공모	-10.2186
▁남아	-10.2189
야당	-10.219
▁요리를	-10.2195
▁의사를	-10.2196
명으로	-10.2205
▁됐어	-10.2207
▁직업	-10.2215
▁스키	-10.2226
▁받	-10.2235
▁중간	-10.2242
▁일이다	-10.2257
▁적응	-10.2262
한다고	-10.2264
▁잊지	-10.227
▁남성	-10.2271
▁그랬	-10.2276
▁비난	-10.2276
▁채널	-10.2278
▁끝내	-10.2279
▁날을	-10.2283
▁특수	-10.2285
껏	-10.2287
▁샀어	-10.2288
▁웃었다	-10.2288
▁출마	-10.2289
▁받는다	-10.2294
▁무엇인가	-10.2295
▁월급	-10.2295
▁울	-10.2295
▁많았다	-10.2297
▁설정	-10.2297
▁일하러	-10.2298
년째	-10.2298
▁골프	-10.2299
▁비정규직	-10.2308
▁총선	-10.2311
▁그저	-10.2313
아이	-10.2317
▁진정한	-10.232
▁묻는	-10.2323
▁치는	-10.2324
▁채식주의자	-10.2324
▁제공할	-10.2325
▁원래	-10.2326
▁행사를	-10.2329
▁밖에서	-10.2334
▁조용	-10.2342
▁의장은	-10.2347
▁달리기를	-10.2352
▁총장은	-10.2353
성과	-10.2354
다는	-10.2356
▁따로	-10.2356
염	-10.2357
명은	-10.2358
▁설계	-10.2362
▁상처	-10.2367
▁C	-10.2369
▁나이가	-10.2383
시장	-10.2384
▁등판	-10.239
또한	-10.2405
스트	-10.2408
▁일주일	-10.2411
▁신뢰를	-10.2416
익	-10.2417
▁낚시를	-10.242
▁용	-10.2421
▁반영	-10.2422
▁전개	-10.2425
▁의식	-10.2427
▁기획	-10.243
▁교	-10.2439
둘	-10.2455
▁이유는	-10.2459
결국	-10.246
모든	-10.2462
완	-10.2466
▁재산	-10.2468
▁싶어요	-10.2481
우리가	-10.2484
▁누군가	-10.2485
▁인도	-10.2493
있니	-10.2493
▁끝이	-10.2495
▁선고	-10.2497
▁없애	-10.25
▁아래	-10.25
▁삶	-10.2503
▁친구들을	-10.2507
▁받았	-10.2509
▁클럽	-10.2512
▁없다면	-10.2521
▁붙	-10.2522
▁출연	-10.2526
▁올라	-10.253
▁용기	-10.2536
능력	-10.254
▁실험	-10.255
혜	-10.2552
▁시작해	-10.2554
거리	-10.2563
▁논란	-10.2565
▁그것	-10.257
▁보라색	-10.2571
▁상담	-10.2572
일본	-10.2577
▁꼬집었다	-10.2582
▁해명했다	-10.2585
▁높였다	-10.2585
▁무서운	-10.2588
▁클래식	-10.2588
▁무료	-10.2589
▁없도록	-10.259
▁긴밀	-10.2593
▁저랑	-10.2593
▁받았어	-10.2593
▁똑같은	-10.2594
▁더불어	-10.2594
▁아닌데	-10.2596
▁있었는데	-10.2596
▁명백	-10.2598
▁농장에서	-10.2599
▁IT	-10.2599
▁토론	-10.2602
▁나머지	-10.2607
봐	-10.2607
북한이	-10.2608
▁오래된	-10.2608
▁월드컵	-10.2609
▁범위	-10.2616
▁부실	-10.2619
▁멕시코	-10.2623
▁개성공단	-10.2625
▁참여한	-10.2626
테	-10.2626
▁연결	-10.2627
▁깊이	-10.2629
해왔다	-10.2632
▁누구	-10.2634
▁기업들이	-10.2635
▁경찰에	-10.2635
▁특별한	-10.2638
▁안타	-10.264
▁역대	-10.2641
보는	-10.2648
▁느낌	-10.2649
실에서	-10.2651
▁토	-10.2651
허	-10.2651
▁그때	-10.2655
▁생각했다	-10.266
누	-10.267
개혁	-10.2671
축	-10.2673
▁장비	-10.2686
▁거죠	-10.2689
나도	-10.2701
▁날씨가	-10.2704
▁들어서	-10.2705
▁참석해	-10.2706
▁팬	-10.2706
▁빈	-10.271
▁구입	-10.2711
▁곳은	-10.2718
▁편지	-10.2722
▁친구와	-10.2736
▁회장이	-10.2739
▁출석	-10.2746
▁비밀	-10.2746
▁민주주의	-10.2749
▁반복	-10.2749
정치	-10.2756
▁등과	-10.2756
▁싫다	-10.276
꽤	-10.2761
주가	-10.2765
▁광	-10.277
▁요구하는	-10.2774
▁노조	-10.2774
력을	-10.2777
▁고민이	-10.2779
하십니까	-10.2781
▁무리	-10.2788
▁카	-10.2789
▁영향	-10.2794
▁종료	-10.2796
선수	-10.2797
▁근처에	-10.2806
▁측면	-10.2816
주년	-10.282
▁정말로	-10.2825
▁오늘밤	-10.2832
▁동일	-10.2838
하죠	-10.2839
▁않았	-10.2839
▁전면	-10.2842
▁선진국	-10.2848
▁편이	-10.2852
▁가족은	-10.2861
▁대체	-10.2871
▁샐러드	-10.2885
▁좋고	-10.2885
▁겨우	-10.2886
▁있었지만	-10.2893
▁하루종일	-10.2898
▁대학을	-10.2902
▁빌려	-10.2903
▁평생	-10.2904
▁훌륭하다	-10.291
▁장점	-10.2911
▁점수	-10.2913
▁오직	-10.2916
▁나아가	-10.2917
원으로	-10.2919
▁애완동물	-10.2921
▁치즈	-10.2922
시에	-10.2925
▁나가겠다	-10.2925
▁당사자	-10.2927
▁타선	-10.2927
▁KB	-10.2935
▁나타나	-10.2938
▁사람과	-10.294
▁감기	-10.294
▁발행	-10.2943
▁독	-10.2943
세대	-10.2949
▁신속	-10.2951
▁대안	-10.2954
▁상태에서	-10.296
▁안경	-10.2962
▁소년	-10.2963
▁받기	-10.2969
▁증시	-10.2972
▁일상	-10.2973
▁끊	-10.2982
▁현금	-10.2985
▁듣기	-10.2986
▁당국	-10.2987
▁땅	-10.299
▁사항	-10.2995
▁암	-10.3003
▁긍정적	-10.3004
▁공공	-10.301
쳐	-10.3016
암	-10.302
▁저를	-10.3022
▁긴장을	-10.3029
▁분위기를	-10.306
코리아	-10.3069
▁이용자	-10.307
포인트	-10.3071
받은	-10.3079
▁선임	-10.3083
▁회사에서	-10.3085
으니	-10.3086
▁가치가	-10.3092
겠네	-10.3097
▁마을	-10.3099
선거	-10.31
이지	-10.3101
▁손실	-10.3101
섭	-10.3103
▁맥주	-10.3122
▁느끼는	-10.3125
▁클	-10.3127
마리	-10.3129
▁뉴욕	-10.3135
▁소유	-10.3138
하는게	-10.3151
▁특징	-10.3153
기는	-10.316
▁잡아	-10.3163
▁혼란	-10.3171
▁중요	-10.3172
▁다니	-10.3177
▁답변	-10.3177
▁기대를	-10.3182
▁홈	-10.3182
▁느낀다	-10.3195
▁변호인	-10.3197
▁짧은	-10.3198
▁찾을	-10.3198
▁짝남한테	-10.3202
려는	-10.3203
북	-10.3203
▁멀리	-10.3204
▁고통	-10.3205
▁떨어져	-10.3207
▁출근	-10.3207
▁누구니	-10.3209
▁제발	-10.3211
▁친구랑	-10.3213
▁푹	-10.3216
▁아무래도	-10.3216
▁차이	-10.3218
▁패션	-10.322
▁미안하다	-10.322
▁과연	-10.3221
▁면접	-10.3228
▁알레르기가	-10.3229
▁공시	-10.3233
▁사세요	-10.3233
▁수능	-10.3233
▁민생	-10.3236
▁주제	-10.3237
▁경험을	-10.3239
▁500	-10.324
▁먹	-10.3241
▁버	-10.3243
▁법무부	-10.3243
으세요	-10.3243
▁방문해	-10.3247
▁물을	-10.3248
▁위에	-10.325
▁시장이	-10.3253
▁치고	-10.3254
▁하는가	-10.3255
▁깨	-10.3261
이후	-10.3265
▁기조	-10.3266
▁사용할	-10.3268
▁수십	-10.3268
a	-10.3271
▁나오고	-10.3274
통신	-10.3276
탈	-10.3277
▁노는	-10.3278
▁양성	-10.3278
▁서울대	-10.328
▁나오는	-10.328
▁호남	-10.3282
▁레	-10.3283
되었다	-10.3286
▁헌법	-10.3288
▁미치는	-10.329
▁가슴이	-10.3297
다고	-10.3298
▁격	-10.33
죄	-10.33
▁경제적	-10.3318
▁할인	-10.3321
헌	-10.3325
▁다리	-10.333
▁친구들이	-10.3335
▁개정안	-10.3335
▁자원	-10.3335
국민들이	-10.3336
▁안정	-10.3336
구단	-10.3337
사실	-10.334
▁운영하는	-10.3345
▁크리스마스	-10.3349
▁부인	-10.335
▁높아지	-10.335
삼	-10.3354
▁있을지	-10.3355
▁캘리포니아	-10.3359
▁생각에	-10.3371
사람	-10.3372
▁시간은	-10.3372
했다고	-10.3374
겠다는	-10.3381
맨	-10.3391
▁월	-10.3396
으	-10.3397
학과	-10.3397
▁안해	-10.3397
▁외에	-10.3403
친구	-10.3403
때문에	-10.3405
▁뒤에	-10.3407
▁만나지	-10.3411
원이	-10.3411
▁찾아가	-10.3413
상품	-10.3417
▁독립	-10.3425
▁종류	-10.3427
▁실망	-10.3439
▁통제	-10.344
▁들여	-10.344
했는지	-10.3444
▁몸이	-10.3445
▁보이	-10.3446
▁여기는	-10.3448
▁거니	-10.3455
사의	-10.3458
▁의미를	-10.3458
달라	-10.3458
▁침해	-10.3464
▁구글	-10.3479
▁후보자는	-10.3479
▁상대적	-10.348
▁선수가	-10.3482
▁참고	-10.3485
표를	-10.3489
▁경남	-10.3489
▁유리	-10.3497
▁했습니다	-10.35
▁싶지	-10.3504
어서	-10.3506
▁부르	-10.3507
▁주문	-10.3508
▁둘러	-10.3519
▁다섯	-10.352
M	-10.352
▁굽는	-10.352
▁많았어요	-10.352
▁엄격	-10.3521
▁재미있겠다	-10.3521
▁선택을	-10.3521
▁반박했다	-10.3523
▁만났어	-10.3523
▁논평	-10.3527
▁있느냐	-10.3527
▁사무총장	-10.3531
▁지자체	-10.3535
▁소중한	-10.3535
▁파견	-10.3536
▁모양	-10.3537
▁베트남	-10.3539
으로써	-10.3545
▁공공기관	-10.3549
▁청문회	-10.3549
▁구체적으로	-10.3554
▁바른정당	-10.3555
▁가게에서	-10.3561
▁오픈	-10.3561
▁위기에	-10.357
▁확인했다	-10.3572
▁인재	-10.3575
▁공간	-10.3577
▁취임	-10.3579
▁봐야	-10.3579
키로	-10.358
▁알바	-10.3584
▁정치를	-10.3595
▁가게	-10.3597
▁힘들게	-10.3599
공사	-10.36
▁살펴	-10.3602
▁학원	-10.3604
돈	-10.3605
▁80	-10.3605
▁상당한	-10.3605
▁시점	-10.3605
▁고기	-10.3607
▁전시	-10.3609
▁동생	-10.3611
▁소식을	-10.3615
▁절	-10.3615
▁향	-10.3618
하길	-10.362
▁아빠가	-10.3624
▁탄	-10.3625
▁판	-10.3626
▁위치	-10.3633
안을	-10.3634
금을	-10.3636
▁인하	-10.3638
▁주력	-10.364
▁봐도	-10.3641
단계	-10.3645
글	-10.365
어요	-10.3652
달러	-10.3652
▁짓	-10.3654
▁금지	-10.3663
▁애플	-10.3666
▁토대	-10.367
▁아닌지	-10.3671
▁끝에	-10.3673
▁원장은	-10.3675
▁잡고	-10.368
금방	-10.3682
돌	-10.3688
취	-10.3692
이라면	-10.3694
▁나면	-10.3696
규모	-10.3713
▁드는	-10.3715
▁첫사랑	-10.3717
훈련	-10.3717
곡	-10.3717
▁출전	-10.3719
▁선배	-10.3721
▁""4	-10.3724
살이	-10.3726
5000	-10.3728
▁칠	-10.3732
그런데	-10.3734
기존	-10.3739
됐고	-10.3747
▁당선	-10.3749
▁내에서	-10.3752
삼성	-10.3755
▁일에	-10.3772
비용	-10.3773
▁정상회담	-10.3785
▁시각	-10.3793
▁축제	-10.3794
▁머리는	-10.3795
분께	-10.3796
했	-10.38
것은	-10.3802
십	-10.3803
▁긴장	-10.3813
▁희생	-10.3815
▁준다	-10.3818
문을	-10.3819
록	-10.3828
▁이별이	-10.383
플	-10.3836
▁분노	-10.384
▁본회의	-10.384
▁띄	-10.385
▁완성	-10.385
▁기부	-10.3852
▁예뻐	-10.3854
▁찾은	-10.3854
▁다이어트	-10.3854
▁리더십	-10.3854
▁손톱	-10.3854
▁정규직	-10.3854
▁어쩔	-10.3855
▁드러났다	-10.3855
▁올렸다	-10.3856
▁데리고	-10.3856
▁할지	-10.3859
해온	-10.3861
▁대하여	-10.3863
▁투	-10.3864
단지	-10.3864
▁개설	-10.3864
▁비슷한	-10.3869
▁때때로	-10.3869
▁빵	-10.387
▁싫어한다	-10.387
▁연봉	-10.3871
▁희망한다	-10.3872
▁여론	-10.3872
▁연습하고	-10.3874
▁상생	-10.3876
▁눈치	-10.3879
전자	-10.388
▁걸려	-10.3881
▁지내길	-10.3883
▁올림픽	-10.3886
▁캐릭터	-10.3887
▁2016	-10.3888
▁형제가	-10.389
▁크	-10.389
▁정비	-10.389
▁허리	-10.3892
▁제주도	-10.3894
▁유출	-10.3895
▁심판	-10.3898
▁검찰이	-10.3901
▁그만큼	-10.3903
▁심화	-10.3906
여명	-10.3906
▁집단	-10.3907
▁유일한	-10.3908
▁아무리	-10.3916
는게	-10.3916
▁지수	-10.3916
▁근본적	-10.3916
▁아니라고	-10.3917
▁비록	-10.3918
▁자격이	-10.392
▁없나	-10.3923
▁진행하고	-10.3925
▁이해할	-10.3929
▁여자친구와	-10.393
▁느낌이	-10.3931
▁지진	-10.3933
▁필요할	-10.3935
▁신문	-10.3938
▁하셨	-10.3938
▁거기서	-10.3948
▁드린다	-10.395
▁뭐라고	-10.3951
▁사건이	-10.3952
▁지사	-10.3954
▁자신에	-10.3958
더라	-10.3961
▁상대방	-10.3962
로운	-10.3963
▁고양이와	-10.3967
▁지명	-10.3969
▁않았어	-10.3975
▁체제	-10.3977
▁유명	-10.398
▁"2	-10.3984
▁사이에서	-10.3985
▁시선	-10.3986
▁빌	-10.3987
▁아내는	-10.3987
자로	-10.3993
▁평	-10.3993
▁놓	-10.4004
▁현장에서	-10.4008
▁수사에	-10.401
시간이	-10.4017
▁중이야	-10.4021
▁위주	-10.4029
▁경기에서	-10.403
16	-10.4034
▁채권	-10.4048
▁아들	-10.4048
▁안내	-10.4057
▁지도	-10.4062
TV	-10.4067
▁지지를	-10.407
니다	-10.4071
베	-10.4072
대한민국	-10.4074
▁캠핑	-10.4079
했으나	-10.408
기구	-10.4086
하루	-10.4086
▁새벽	-10.4087
▁소리를	-10.409
▁봉사	-10.4101
▁신설	-10.4102
▁위치한	-10.4103
하려면	-10.4107
▁이웃	-10.4116
▁파는	-10.4117
라서	-10.4126
▁모집	-10.4126
▁봅니다	-10.4127
▁"1	-10.4128
▁굳	-10.4129
션	-10.4134
▁소비자들	-10.4141
▁풍	-10.4153
▁이전에	-10.4153
▁주도	-10.4155
부장은	-10.4156
▁채택	-10.4157
대출	-10.4157
▁높이는	-10.4159
어제	-10.4159
소를	-10.4161
여서	-10.4162
▁있으니	-10.4164
▁생겼	-10.4167
느라	-10.4169
▁통해서	-10.417
▁오른	-10.4172
▁인터뷰	-10.4174
▁받아들이	-10.4176
▁일본의	-10.4186
▁슬	-10.4194
시길	-10.4195
▁즐기	-10.4196
▁캐나다	-10.4197
P	-10.4197
▁드디어	-10.4198
▁애니메이션	-10.4198
수사	-10.4199
▁실행	-10.42
▁같습니다	-10.42
▁승부	-10.42
자마자	-10.42
▁않았으면	-10.4201
▁유투브	-10.4201
려면	-10.4201
▁이사회	-10.4202
▁탓	-10.4203
▁연간	-10.4204
▁합격	-10.4205
▁쿠키	-10.4205
▁늦지	-10.4207
▁부담이	-10.4208
▁객관적	-10.421
▁KBO	-10.421
▁어깨	-10.421
▁생기	-10.421
▁가능할	-10.4211
▁대표의	-10.4212
▁인형	-10.4213
▁요청했다	-10.4214
▁약속했다	-10.4216
▁철저	-10.4217
▁반도체	-10.4218
▁갖게	-10.4219
▁문제로	-10.422
▁코스피	-10.4221
▁네트워크	-10.4223
▁공유	-10.4223
▁무조건	-10.4223
▁경향이	-10.4224
▁군사	-10.4225
▁대부분의	-10.4226
▁겸	-10.4228
▁징계	-10.4228
▁의견이	-10.4229
▁호수	-10.4231
▁신임	-10.4232
씨와	-10.4234
▁협약	-10.4236
▁""3	-10.4236
▁사무실에서	-10.4237
▁방식으로	-10.4237
치는	-10.4238
▁나가는	-10.4239
▁부품	-10.4243
▁그걸	-10.4244
▁가리	-10.4246
▁자신에게	-10.4246
▁개입	-10.4248
▁문자	-10.4248
▁FTA	-10.425
었지만	-10.425
▁보여주는	-10.4251
▁악화	-10.4258
▁돼야	-10.4261
▁배려	-10.4263
▁축하	-10.4264
▁권리	-10.4264
▁스타	-10.4265
내일	-10.4271
▁교육부	-10.428
시켰다	-10.4284
▁허용	-10.4286
▁근처	-10.429
▁들과	-10.4297
▁어디로	-10.4304
▁독서를	-10.4305
▁성실	-10.4306
▁연락하고	-10.431
▁했니	-10.4314
▁것이고	-10.4318
▁상처를	-10.432
▁됐	-10.4321
▁만족	-10.4327
▁가수	-10.4329
▁페	-10.4333
▁강조하	-10.4336
▁브리핑을	-10.4339
▁소설	-10.434
▁파이	-10.4345
▁동물들을	-10.4346
▁입학	-10.4347
▁연인	-10.4349
▁가니	-10.4362
▁안정적인	-10.4362
▁기타를	-10.4364
▁꾸	-10.4365
▁고통을	-10.4369
서를	-10.4373
식을	-10.4375
▁담	-10.4377
▁날씨를	-10.4387
▁언급	-10.4388
▁끝나고	-10.4396
▁저희	-10.4401
▁죄	-10.4405
▁사무실	-10.4406
자의	-10.441
▁수영	-10.4414
▁연대	-10.4421
룰	-10.4421
앤	-10.4423
바른	-10.4427
낙	-10.4429
글쎄	-10.4429
멋지다	-10.4432
2000	-10.4432
▁과일	-10.4433
물론	-10.4435
▁독서	-10.4436
립	-10.4437
▁준비하는	-10.4439
▁의도	-10.4441
▁대가	-10.4444
▁비용을	-10.4445
분의	-10.4445
지금까지	-10.4451
▁알지	-10.4452
▁경선	-10.4453
▁야채	-10.4453
▁초대	-10.4457
마을	-10.4458
▁물어봐	-10.4459
▁사귀는	-10.446
이닝	-10.4461
▁것이며	-10.4462
▁결심	-10.447
그리고	-10.4471
▁""1	-10.4476
자금	-10.4477
▁제공하고	-10.4477
▁락	-10.4483
측	-10.4488
▁생각은	-10.4493
▁열정	-10.4493
▁영역	-10.4493
렸다	-10.4497
▁울산	-10.45
행위	-10.45
▁일하기	-10.4501
▁대변인	-10.4504
안타	-10.4505
내년	-10.4506
▁기초	-10.4514
▁법원	-10.4515
▁간사	-10.4519
▁대법원	-10.452
시부터	-10.4522
▁활용해	-10.4523
▁대답	-10.4524
▁화장	-10.4524
▁투입	-10.4525
이들은	-10.4529
▁바꿔	-10.454
▁기소	-10.4544
▁이끌	-10.4545
메	-10.4546
▁두려워	-10.4549
▁촬영	-10.455
▁하루에	-10.455
웠다	-10.4551
▁오고	-10.4554
▁느낄	-10.4556
▁안됐구나	-10.4556
▁홍콩	-10.4556
▁최악	-10.4556
▁넥센	-10.4557
▁계	-10.4557
▁대폭	-10.4557
▁장애	-10.4558
▁휴대폰	-10.4558
▁있었나	-10.4558
법인	-10.456
잖아요	-10.4561
▁개헌	-10.4562
▁드라마	-10.4563
▁예쁜	-10.4563
▁주문했다	-10.4565
▁결단	-10.4567
▁과정이	-10.4567
▁우산	-10.4568
27	-10.4568
한데	-10.457
▁사랑했던	-10.4571
▁기여할	-10.4574
▁일방적	-10.4574
▁진행된	-10.4575
▁지역에서	-10.4575
▁스페인	-10.4577
▁시작했어	-10.4577
지방	-10.4577
▁후보의	-10.4578
▁취소	-10.4578
▁북핵	-10.4579
▁입장에서	-10.4579
▁치킨	-10.458
▁화장실	-10.4581
▁데이터	-10.4581
▁지분	-10.4582
▁진행된다	-10.4583
▁바쁘다	-10.4584
▁기대했다	-10.4586
▁석	-10.4592
▁여친이	-10.4592
▁든다	-10.4593
▁것만으로도	-10.4594
검찰은	-10.4594
▁간담회	-10.4594
▁만으로도	-10.46
나갈	-10.4601
▁총장	-10.4604
▁민원	-10.4605
▁그곳에서	-10.4607
▁불리	-10.4609
▁없는데	-10.4611
▁패	-10.4613
▁즉	-10.4614
▁법적	-10.4616
되면서	-10.4617
▁개방	-10.462
▁확인하고	-10.4626
담	-10.463
씨를	-10.4632
▁결정했다	-10.4634
▁전부	-10.4647
▁자고	-10.4648
▁김정은	-10.4649
이어서	-10.4649
▁춤을	-10.4649
▁부대	-10.4655
▁가량	-10.4659
▁친구야	-10.4662
▁듣는다	-10.4663
▁알리	-10.4664
운동	-10.4664
▁좋은데	-10.4665
▁목표로	-10.4666
▁비상	-10.467
▁D	-10.4672
▁맥주를	-10.4673
▁전주	-10.4678
▁왔	-10.468
었습니다	-10.4686
▁정착	-10.4687
▁주목	-10.4691
▁정리하는	-10.4699
▁수요가	-10.4701
▁확대해	-10.4704
▁지원할	-10.4705
▁무대	-10.472
의원	-10.4722
▁지역의	-10.4722
▁하반기	-10.4728
▁가동	-10.4733
▁인기가	-10.4737
▁오빠	-10.4738
▁각자	-10.474
▁느낌을	-10.4742
▁말에	-10.4744
▁장관이	-10.4749
개국	-10.4752
▁메이저리그	-10.4761
17	-10.4772
▁없으면	-10.4773
녀	-10.4776
▁이름이	-10.4777
▁물어보	-10.4782
▁시위	-10.4789
기준	-10.4792
▁벌이	-10.4792
▁세상을	-10.4793
너무	-10.4794
감독	-10.4795
▁마음으로	-10.4798
25	-10.4798
▁개념	-10.48
▁제외한	-10.4801
롯데	-10.4801
LG	-10.4802
▁파트너	-10.4802
새로운	-10.4804
씨에게	-10.4804
▁충전	-10.4815
▁말로	-10.4815
지구	-10.4819
경영	-10.4821
SK	-10.4829
▁상관	-10.483
▁관행	-10.483
▁식당	-10.4831
▁무기	-10.4834
▁대단	-10.4841
▁애가	-10.4841
▁사람에게	-10.4841
지가	-10.4842
분야	-10.4845
▁응원	-10.4847
등급	-10.4847
▁노동자	-10.4858
▁같네	-10.4861
▁호감	-10.4862
▁친환경	-10.4869
▁부처	-10.4869
▁기분은	-10.4871
▁사진을	-10.4872
개인	-10.4872
▁출범	-10.4874
▁사용하는	-10.4879
▁하나를	-10.488
▁회	-10.4881
▁계산	-10.4886
▁높아	-10.4887
▁보낸	-10.4888
▁시작할	-10.4888
▁괜찮	-10.4889
▁데이트를	-10.4892
리를	-10.4893
▁남자애	-10.4895
▁고객이	-10.4895
▁인정하	-10.49
사고	-10.49
하고자	-10.4912
▁좋아하게	-10.4912
여성	-10.4913
▁선생님이	-10.4914
본부	-10.4914
회의	-10.492
▁이후로	-10.4923
▁초록색	-10.4924
▁아닐	-10.4924
▁오토바이	-10.4926
▁풍부한	-10.4926
▁언젠간	-10.4926
▁급격	-10.4926
▁이별한지	-10.4927
▁최우선	-10.4927
▁즉각	-10.4927
▁적당히	-10.4927
▁있으나	-10.4928
▁잘지냈어	-10.4928
▁코스닥	-10.4928
▁취재진	-10.4931
▁괜찮을까	-10.4931
이미	-10.4931
▁신중	-10.4932
▁떠났다	-10.4933
▁소프트웨어	-10.4933
▁거부	-10.4933
▁비공개	-10.4934
▁먹었다	-10.4935
▁행복하다	-10.4935
▁이루	-10.4936
▁먹어야지	-10.4937
▁태어나	-10.4939
▁고문	-10.494
▁단일화	-10.4942
▁매도	-10.4943
째	-10.4945
▁도와주	-10.4945
▁차별화된	-10.4947
시까지	-10.4948
▁걸로	-10.495
▁마련했다	-10.4952
▁교과서	-10.4953
에게도	-10.4954
▁포함	-10.4956
▁한나라당	-10.4957
▁가계부채	-10.4957
▁격려	-10.496
드는	-10.496
▁유치원	-10.4962
▁썸남	-10.4969
▁운명	-10.4971
▁보낸다	-10.4974
▁전직	-10.4976
▁되도록	-10.4976
▁남아있	-10.4978
▁요인	-10.4978
▁제조업	-10.4978
▁무역	-10.4979
▁당신	-10.4982
▁빛	-10.4983
▁친구는	-10.4983
▁끼	-10.4984
▁기르고	-10.4986
▁많아요	-10.4994
▁세상에	-10.4995
▁못하	-10.4995
▁메르스	-10.4995
▁입법	-10.4997
▁수정	-10.5005
갑	-10.5012
▁권한	-10.5014
▁중인데	-10.5015
▁금감원	-10.5015
▁만남	-10.5016
▁사용한	-10.502
국민의	-10.5025
▁없기	-10.5026
▁중요하	-10.5027
▁당국자	-10.5038
안전	-10.504
▁동물들	-10.5041
▁염	-10.5041
개를	-10.5045
▁아이스크림을	-10.505
책임	-10.5053
▁식으로	-10.5054
일에	-10.5056
자료를	-10.5067
▁매장	-10.5069
▁5000	-10.5069
▁팀의	-10.507
▁참사	-10.5072
▁꿈에	-10.5073
▁생긴	-10.5085
나봐	-10.5086
▁학생들은	-10.5095
▁부모님은	-10.5096
▁봐요	-10.5098
▁예술가	-10.5105
을까	-10.5105
▁전형	-10.5106
▁소설을	-10.5107
퍼	-10.5108
롭게	-10.5111
▁보상	-10.5113
▁짜	-10.5114
관계자는	-10.5115
폐	-10.5115
▁군사적	-10.512
연구	-10.5129
만의	-10.5135
▁믿고	-10.5141
▁늘고	-10.5141
간의	-10.5144
▁대중	-10.5149
▁알아보	-10.515
▁떠	-10.5155
▁단기	-10.5156
존	-10.5159
▁일이야	-10.5165
▁루	-10.5171
▁심해	-10.5171
▁날씨는	-10.5173
알	-10.5178
벌	-10.518
귀	-10.518
쉬	-10.5181
밥	-10.5182
좀	-10.5187
매우	-10.5194
▁돌아오	-10.5207
▁다할	-10.5209
하네	-10.521
▁라	-10.523
▁입주	-10.5233
에게는	-10.5236
아주	-10.5236
킬	-10.5241
▁소화	-10.5246
▁브리핑	-10.5251
▁찬	-10.5256
▁사과를	-10.5257
▁안되는	-10.5259
하겠다고	-10.5262
▁너가	-10.5268
▁학	-10.5268
▁교류	-10.5269
▁가시	-10.5269
▁의장	-10.527
▁수상	-10.5275
▁부자	-10.5275
▁여자야	-10.5277
▁물가	-10.5277
힌	-10.5279
▁필	-10.5279
▁틀	-10.529
▁미안	-10.5293
▁영입	-10.5293
릴게요	-10.53
▁확충	-10.5301
▁이끌어	-10.5304
▁CEO	-10.5311
▁남동생	-10.5311
▁노하우	-10.5311
▁위대하다	-10.5311
▁잊을	-10.5311
▁플랫폼	-10.5311
▁눈길을	-10.5311
▁일본에서	-10.5311
토록	-10.5311
▁수수료	-10.5312
▁비싼	-10.5312
▁셈이다	-10.5313
▁최씨	-10.5313
▁뱀	-10.5313
▁넷플릭스	-10.5313
▁각별	-10.5315
▁열었다	-10.5318
▁징역	-10.5318
▁못하겠어	-10.5319
▁밑	-10.532
▁가졌다	-10.5321
▁행복하게	-10.5322
▁농업	-10.5322
로써	-10.5324
▁한동안	-10.5324
▁되었어	-10.5324
▁탈출	-10.533
▁인권	-10.533
족	-10.5333
율	-10.5334
▁좋았다	-10.5336
▁지속적인	-10.5336
▁숲	-10.5337
▁프로야구	-10.5338
▁우려했다	-10.5338
▁임직원	-10.5339
▁노후	-10.5341
▁허위	-10.5342
▁연구위원	-10.5345
~	-10.5345
▁났다	-10.5346
▁여행하는	-10.535
하느라	-10.5352
▁아니었다	-10.5353
▁호주	-10.5355
▁혹	-10.5357
▁새정치연합	-10.5358
▁상호	-10.536
▁P	-10.536
▁준비했다	-10.5361
▁할머니	-10.5365
들어	-10.5371
▁전원	-10.5372
▁됩니다	-10.5372
▁삼아	-10.5374
어떠한	-10.5375
▁d	-10.5375
▁좋지만	-10.5382
▁자세한	-10.5386
주기	-10.5387
▁놀아	-10.5388
▁판사	-10.5389
▁오늘밤은	-10.5404
▁나처럼	-10.5412
▁그들	-10.5413
▁이내	-10.5413
했니	-10.5414
▁이같은	-10.5419
▁이르	-10.542
▁가능하	-10.5421
▁책임자	-10.5427
연구소	-10.5429
▁줘	-10.544
▁고인	-10.5444
처리	-10.5445
▁터	-10.5451
▁나오지	-10.5455
감을	-10.5456
▁봉	-10.5457
▁콘서트	-10.5458
▁죽을	-10.5461
겠습니다	-10.5462
▁방법으로	-10.5465
▁때부터	-10.5467
▁함	-10.5467
지고	-10.5468
우리나라	-10.5468
▁이건	-10.547
텐데	-10.5471
▁바람이	-10.5472
년에는	-10.5473
▁고객들	-10.5475
▁상반기	-10.548
장으로	-10.5482
▁좋아하는데	-10.5484
▁대외	-10.5486
▁싸우	-10.55
▁경기에	-10.5502
혁	-10.5503
사건	-10.5505
▁상상	-10.5506
▁홈런	-10.5509
술	-10.5513
먼	-10.5514
▁잠이	-10.5516
혁신	-10.5518
원에	-10.5518
▁임원	-10.552
절차	-10.5528
▁입은	-10.5531
기회를	-10.5533
비를	-10.5533
▁허가	-10.5537
▁거절	-10.554
▁영향이	-10.5541
▁말아야	-10.5541
▁보며	-10.5542
▁챙겨	-10.5542
▁선도	-10.5542
R	-10.5542
▁휴	-10.5551
착	-10.5553
▁지적에	-10.5558
▁본사	-10.5558
▁선택할	-10.5562
▁연계	-10.5565
▁가능해	-10.5567
▁논	-10.5571
▁최고위원	-10.5571
검사	-10.5572
▁특	-10.5574
▁힘들지	-10.5575
엘	-10.5578
대상	-10.5579
▁지켜보	-10.5583
▁수다	-10.5584
▁창	-10.5585
스포츠	-10.5586
펀드	-10.5586
글로벌	-10.5587
잘지내니	-10.5589
▁숫자	-10.5599
▁결	-10.5601
▁나라를	-10.5603
13	-10.5605
▁인물	-10.5607
▁후원	-10.5611
▁언급하	-10.5612
▁미국에서	-10.5614
▁서민	-10.5617
▁테니스	-10.5625
▁부정	-10.5635
▁쇼핑을	-10.5636
검	-10.5639
▁육성	-10.5642
▁취	-10.5647
▁쓰지	-10.5648
▁요인이	-10.5648
▁강도	-10.565
▁하이킹	-10.5664
수가	-10.5665
시장에서	-10.5674
▁전제	-10.5677
▁디	-10.5681
▁선언	-10.5686
▁자살	-10.5689
▁요금	-10.569
▁점은	-10.569
▁그간	-10.569
▁급	-10.5691
짝	-10.5698
칭	-10.5704
▁노력할	-10.5705
▁확인해	-10.5706
엽	-10.5709
▁인도네시아	-10.5711
▁나타냈다	-10.5711
▁갖춰	-10.5711
▁불구속	-10.5711
▁노력중이야	-10.5711
▁밝혔습니다	-10.5711
▁담긴	-10.5712
▁짝녀한테	-10.5712
▁알려줘	-10.5713
▁보낼	-10.5714
▁덕	-10.5715
▁마친	-10.5715
▁디지털	-10.5715
정말	-10.5715
▁고쳐	-10.5715
▁믿는다	-10.5718
▁엄청난	-10.5718
물이	-10.5718
▁KIA	-10.5718
▁이뤄질	-10.5719
▁도약	-10.5719
▁생겨	-10.5719
▁친구한테	-10.572
▁표정	-10.572
▁뭔지	-10.572
▁자연스럽게	-10.572
▁임신	-10.5722
▁현대차	-10.5722
시키고	-10.5723
▁다행	-10.5723
▁조속히	-10.5723
▁쥐	-10.5724
▁프리미엄	-10.5724
▁야권	-10.5725
▁제시	-10.5725
▁조언했다	-10.5725
▁비난했다	-10.5731
▁방학	-10.5732
▁소환	-10.5732
▁받게	-10.5734
▁나설	-10.5735
▁생선	-10.5736
▁소재	-10.5737
▁마찬가지로	-10.5738
▁취할	-10.5739
▁늦은	-10.574
▁부채	-10.5741
▁신선	-10.5741
▁도로	-10.5745
▁단속	-10.5749
▁심지어	-10.5749
팔	-10.5752
▁강원	-10.5753
▁잇	-10.5754
▁여동생	-10.5754
▁않나	-10.5755
▁당분간	-10.5755
▁대체로	-10.5755
▁실적이	-10.576
▁예의가	-10.5767
▁주체	-10.5771
▁고민하고	-10.5772
▁성장을	-10.5782
▁차기	-10.5782
▁상승세	-10.5783
원을	-10.5784
걸까	-10.5784
▁크기	-10.5785
▁날이야	-10.5786
▁농구를	-10.5788
▁강제	-10.5792
▁색깔은	-10.5793
▁떨	-10.5796
겠	-10.5796
▁쪽으로	-10.5796
▁3000	-10.5799
▁아침은	-10.5805
▁사유	-10.5808
▁과도	-10.5814
▁노력한다	-10.5815
▁속도를	-10.5817
▁대표하는	-10.5819
하자는	-10.5833
극	-10.5837
▁키워	-10.5848
▁빠져	-10.585
▁용기를	-10.5853
▁고양이들	-10.5858
▁저녁으로	-10.5858
▁눈물을	-10.5859
선을	-10.5865
▁방문하	-10.5869
▁투자자	-10.5871
▁수집	-10.5879
▁그래요	-10.5881
▁기념	-10.5882
▁과장	-10.5883
▁90	-10.5885
▁수영을	-10.5886
▁빼	-10.5888
▁정치권	-10.5888
▁오후야	-10.5895
▁것들	-10.5895
▁있었고	-10.5907
고객	-10.5911
았던	-10.5912
▁남편은	-10.5917
i	-10.5918
▁칭찬	-10.592
▁대만	-10.5922
▁되네	-10.5923
▁형사	-10.5926
해당	-10.5937
▁컴퓨터를	-10.5939
▁박사	-10.5943
▁이게	-10.5951
▁나가기	-10.5953
▁바꾸는	-10.5954
▁헤이	-10.5954
활동	-10.5956
▁체력	-10.5958
▁수색	-10.596
싱	-10.5964
▁받아야	-10.5964
11	-10.5965
▁전반적	-10.5967
▁시켜	-10.5967
건설	-10.5969
▁되기를	-10.597
t	-10.5972
밤	-10.5975
합	-10.5977
▁진심	-10.5979
어야	-10.598
▁지하	-10.5981
▁단장	-10.5981
학생들	-10.5984
▁통신	-10.5985
▁신나	-10.5988
▁밟	-10.5988
싼	-10.5991
18	-10.5994
▁삭제	-10.5995
▁부회장	-10.5996
▁어머니는	-10.5997
자동차	-10.6002
▁실시	-10.6003
왜	-10.6003
했으면	-10.6006
▁작업을	-10.6007
N	-10.6009
▁"3	-10.601
▁오르	-10.601
▁모여	-10.6011
성장	-10.6015
것이	-10.6016
▁있는가	-10.6018
▁지식	-10.6018
▁되었	-10.6018
치고	-10.6018
▁개의	-10.6032
▁강조	-10.6039
민주당	-10.6045
▁정기	-10.6053
▁달라고	-10.6053
▁비행기	-10.6055
▁동기	-10.6059
▁업종	-10.6061
회견에서	-10.6061
▁배가	-10.6064
▁태	-10.6067
▁사고가	-10.6068
▁지속되	-10.607
에만	-10.6079
▁주인	-10.608
▁배우는	-10.6083
▁떨어지	-10.6084
리는	-10.609
함에	-10.6093
▁기술이	-10.6094
▁떨어진	-10.6098
▁와인	-10.6103
▁일어난	-10.6105
청장은	-10.6106
▁던지	-10.611
▁귀찮아	-10.6112
슨	-10.6112
▁검색	-10.6115
▁혼	-10.6117
▁수도권	-10.6119
연구원	-10.6122
▁작년	-10.6124
▁패배	-10.6126
▁썼다	-10.6127
쩍	-10.6127
▁협업	-10.6127
▁정책위의장	-10.6127
▁오랜만에	-10.6128
▁저렴	-10.6128
▁지휘	-10.6128
▁자존감	-10.6129
▁갔었어	-10.6129
▁초밥	-10.6129
▁주무세요	-10.6129
▁살짝	-10.6129
▁입증	-10.613
▁컨디션	-10.613
▁조절	-10.6131
▁과정에	-10.6131
▁국방	-10.6131
▁미칠	-10.6131
▁공포	-10.6132
▁빠진	-10.6132
▁호소했다	-10.6134
▁완벽한	-10.6136
▁앞장서	-10.6137
▁싶었다	-10.6137
▁진단	-10.6138
▁줄어들	-10.6141
▁충북	-10.6141
▁최소화	-10.6143
▁보냈다	-10.6144
▁창조	-10.6145
▁수영장	-10.6146
▁불펜	-10.6147
▁땐	-10.6152
▁테스트	-10.6152
▁중요하지	-10.6152
▁총괄	-10.6154
▁색깔	-10.6154
▁뿌리	-10.6157
▁플레이	-10.6157
▁북측	-10.6157
▁내렸다	-10.6163
▁긴급	-10.6165
▁체육관에서	-10.6166
▁죽음	-10.6167
까봐	-10.6169
▁혹시	-10.6169
▁재단	-10.6171
▁소식이	-10.6172
▁있으니까	-10.6172
▁유명한	-10.6173
▁합병	-10.6173
▁됐으면	-10.6174
여야	-10.6175
▁국민들에게	-10.6176
▁과목	-10.6179
▁계속되	-10.6179
▁필수	-10.6183
▁수습	-10.6184
▁완	-10.6184
▁수의사	-10.6187
▁여자애가	-10.6192
▁신분	-10.6193
▁통일부	-10.6196
▁신체	-10.6196
▁제기	-10.6198
제를	-10.6199
▁강원도	-10.6199
▁판매량	-10.6201
▁사면	-10.6202
▁저에게	-10.6202
▁동물원	-10.6209
▁남자애가	-10.6212
▁우리에게	-10.6214
▁당초	-10.6216
▁눈물	-10.6216
▁기준으로	-10.622
▁사항은	-10.6227
▁기록을	-10.6232
▁이기	-10.6234
▁직업은	-10.6234
▁선수는	-10.6235
지요	-10.6236
▁N	-10.6237
▁정도는	-10.6237
▁회사의	-10.6249
계획	-10.625
▁그리는	-10.6252
▁나은	-10.6253
▁언제든	-10.6254
▁했으면	-10.6255
▁간담회에서	-10.6256
▁포기	-10.6257
▁연주	-10.6257
있게	-10.6263
▁낙	-10.6265
▁크고	-10.6277
료	-10.6278
▁시작으로	-10.6283
▁받아들이는	-10.6283
대에	-10.6285
▁내년에	-10.6287
▁관계자들	-10.6295
학생	-10.63
▁오면	-10.6301
▁인생은	-10.6303
▁지도자	-10.6306
▁사건에	-10.6306
▁분야에서	-10.6311
▁이별의	-10.6317
▁정식	-10.6319
▁이들이	-10.6329
▁서명	-10.633
잡	-10.633
▁찾아오	-10.6332
▁거치	-10.6335
통합	-10.6346
▁이슈	-10.6349
▁느끼	-10.6351
▁행사에	-10.6366
▁전문가들	-10.6369
▁확장	-10.6375
전에서	-10.6378
▁봤	-10.6378
▁나을	-10.638
▁무시	-10.6383
농	-10.6384
흥	-10.6385
▁출신이	-10.6386
▁이길	-10.6387
폭	-10.6398
▁팀이	-10.6398
▁토요일	-10.6402
▁낳	-10.6406
▁기도	-10.641
▁거기에	-10.6412
▁좋게	-10.6417
범죄	-10.6417
대표	-10.6419
X	-10.6422
클	-10.6423
겠어	-10.6424
▁효율적	-10.6425
연합	-10.6427
협의회	-10.6427
값	-10.6429
▁초반	-10.6429
▁부과	-10.6433
▁하여	-10.6433
협력	-10.6435
끝	-10.6435
드린다	-10.6436
▁멈추	-10.6437
트럼프	-10.6437
큰	-10.6439
▁허리케인	-10.644
재판부는	-10.646
▁하는게	-10.6472
▁35	-10.6474
▁것이라	-10.6477
조정	-10.6486
▁싫어하는	-10.6487
▁기간이	-10.6489
기상청	-10.6496
해줄	-10.6501
▁이하	-10.6505
▁고발	-10.6507
▁데뷔	-10.6511
만이	-10.6521
관계	-10.6522
대책	-10.653
▁표시	-10.6542
회초	-10.6545
▁올린	-10.6548
▁동원	-10.6549
핑	-10.6558
▁자격	-10.6558
께서	-10.656
▁귀국	-10.6561
▁굽고	-10.6562
▁남겼다	-10.6562
▁달콤한	-10.6562
▁옮겨	-10.6562
▁가벼	-10.6562
▁시원한	-10.6562
▁아름다워	-10.6562
▁작동	-10.6563
장에서	-10.6563
▁합의를	-10.6564
▁계란	-10.6564
▁가져올	-10.6564
▁알려져	-10.6565
▁모았다	-10.6565
▁포트폴리오	-10.6565
▁늘어날	-10.6566
▁차별	-10.6566
▁금요일	-10.6566
▁묻자	-10.6566
것도	-10.6566
국정원	-10.6567
▁절감	-10.6567
▁건강에	-10.6568
▁없었던	-10.6569
▁예쁘게	-10.6569
▁유동성	-10.6571
▁겁니다	-10.6571
▁확립	-10.6571
▁채무	-10.6571
▁맞다	-10.6571
▁침체	-10.6572
▁조심하세요	-10.6573
▁이별후	-10.6573
▁나왔어	-10.6573
▁감동	-10.6576
▁2008	-10.6576
▁궁금하다	-10.6576
▁드	-10.6577
▁마리의	-10.6578
▁FA	-10.6578
▁아프다	-10.6578
▁이유에	-10.6579
▁고개를	-10.658
시장의	-10.658
▁봉사활동	-10.658
▁할아버지	-10.658
▁나눔	-10.6581
▁랩	-10.6582
▁파업	-10.6585
▁맞춤형	-10.6588
▁세력	-10.6588
▁추석	-10.6592
▁형식	-10.6594
▁위안부	-10.6594
▁동향	-10.6595
▁폭발	-10.6597
▁요소	-10.6598
▁시리즈	-10.6599
위로	-10.6599
▁강행	-10.6599
▁고민이야	-10.6601
▁나왔	-10.6601
▁선사	-10.6604
▁환율	-10.6606
▁계열사	-10.6608
▁증가했다	-10.6608
▁막기	-10.6609
부문	-10.6609
▁전까지	-10.6611
200	-10.6613
▁보았다	-10.6618
▁나가야	-10.662
▁구상	-10.6622
위는	-10.6623
▁그곳에	-10.6625
▁증가하고	-10.6627
▁상위	-10.6627
▁가려	-10.6627
▁영장	-10.6632
활동을	-10.6632
▁그날	-10.6635
므로	-10.6638
▁득점	-10.664
▁NH	-10.6642
조직	-10.6645
▁남자친구와	-10.6645
세기	-10.6646
만한	-10.6647
▁마시는	-10.6647
▁진행되고	-10.6649
▁말하지	-10.665
▁수익성	-10.6653
과학	-10.6655
▁이명박	-10.6656
▁쇼핑몰	-10.6656
▁그들에게	-10.6657
▁협조를	-10.6657
▁이상해	-10.6661
▁의심	-10.6667
하하	-10.6667
▁돌파	-10.6667
▁유일	-10.6668
▁현안	-10.6669
▁북한에	-10.667
▁폰	-10.6671
▁가격이	-10.6672
▁아버지가	-10.6681
▁물어보는	-10.6685
▁제기한	-10.6686
▁대처	-10.6687
▁숙	-10.669
▁거리를	-10.6693
▁바라는	-10.6696
해질	-10.67
▁마다	-10.6701
▁전통	-10.6702
자와	-10.6703
장에	-10.6703
▁시골	-10.6703
▁본부장은	-10.6709
▁수리	-10.6709
▁어려움이	-10.6712
▁실장은	-10.6713
▁개별	-10.6726
▁상사	-10.6731
스러운	-10.6732
상태	-10.6739
▁중대	-10.674
▁소장	-10.6741
▁코리아	-10.6742
▁전반	-10.6743
▁반성	-10.6749
▁부여	-10.675
더라고요	-10.6751
▁처	-10.6753
▁트	-10.6757
▁복잡하	-10.6759
▁그러고	-10.6771
▁전부터	-10.6773
▁입지	-10.6774
▁운동하는	-10.6776
▁못하면	-10.6778
▁성명	-10.6783
▁캠프	-10.6787
▁악	-10.6789
▁없지	-10.6792
▁재개	-10.6796
▁김영	-10.6799
먹	-10.68
갔다	-10.6803
봤	-10.6803
인사	-10.6803
▁것이었다	-10.6808
▁사업이	-10.681
▁여부에	-10.6813
▁밴드를	-10.6817
▁달에	-10.6817
▁c	-10.6819
▁흥분	-10.6821
▁회사에	-10.6822
▁이벤트를	-10.6827
달라고	-10.6832
협	-10.6838
대통령	-10.6843
▁유저들	-10.6847
▁농담	-10.685
▁해줘	-10.6853
▁원하지	-10.6855
▁감시	-10.6856
▁되어가	-10.6856
▁협상을	-10.6858
▁하다가	-10.6864
▁검찰에	-10.6865
▁내내	-10.6867
꺼	-10.6872
억원이	-10.6873
▁충남	-10.6873
텍	-10.6875
피트	-10.6875
▁소지	-10.6878
8000	-10.6886
었으면	-10.6887
▁내용은	-10.6889
▁목소리가	-10.6892
운영	-10.6895
위원장	-10.6899
▁추운	-10.69
볼까	-10.69
관광	-10.6903
▁반발	-10.6908
▁장면	-10.6911
▁자원봉사	-10.6914
▁감정이	-10.6915
▁대결	-10.6915
▁주말이	-10.6915
▁국민과	-10.6917
▁발생하는	-10.692
▁크지	-10.6927
▁그곳	-10.6932
▁하라	-10.6935
▁섬	-10.6939
▁한다면	-10.694
▁서류	-10.6947
▁공격을	-10.6947
▁발표할	-10.6947
▁일도	-10.6947
▁사람에	-10.6949
▁보관	-10.6951
▁해주세요	-10.6952
▁선출	-10.6961
끼리	-10.6972
▁행동을	-10.6974
▁차원	-10.6976
▁36	-10.6979
▁분양	-10.6987
▁떠난	-10.6988
놓은	-10.6994
▁참여해	-10.6994
▁나오	-10.6996
라운드	-10.7005
개선	-10.7008
▁쓰레기	-10.7009
▁무죄	-10.7012
▁취직	-10.7012
텐	-10.7014
;	-10.7017
칫	-10.7017
▁토로했다	-10.7017
▁부러워	-10.7017
▁최고위원회의에서	-10.7017
답니다	-10.7017
▁며칠	-10.7018
▁떨려	-10.7018
▁성향	-10.7018
▁정밀	-10.7019
▁않느냐	-10.7019
▁절반	-10.702
▁첫번째	-10.7021
▁끝났어	-10.7021
▁교육을	-10.7021
▁흥미롭다	-10.7022
▁철거	-10.7022
▁국내외	-10.7022
▁활력	-10.7023
치를	-10.7024
▁즉시	-10.7024
▁장난	-10.7025
▁경고했다	-10.7025
▁얻었다	-10.7025
▁사라야	-10.7026
▁뛰어난	-10.7028
▁정황	-10.7028
▁어땠어	-10.7028
▁좋겠죠	-10.7029
▁방침이다	-10.7029
▁한잔	-10.7029
▁적절한	-10.7031
▁맨날	-10.7032
▁복잡한	-10.7033
▁합동	-10.7037
▁보냈어	-10.7037
▁최저임금	-10.7037
▁품질	-10.704
▁채식주의자야	-10.7041
▁분열	-10.7041
▁품목	-10.7041
▁선생님이야	-10.7041
▁면에서	-10.7042
▁증인	-10.7043
▁차질	-10.7046
▁세부	-10.7046
▁베스트	-10.705
▁감각	-10.7051
▁정체성	-10.7051
▁학위를	-10.7053
▁자유시간	-10.7058
▁재무	-10.7058
▁성장률	-10.7059
▁따져	-10.706
▁문건	-10.7061
▁국민연금	-10.7062
▁춤추는	-10.7062
▁공통	-10.7062
▁투쟁	-10.7063
▁언급한	-10.7064
▁기념일	-10.7065
▁본질	-10.7069
게요	-10.7069
▁너무나	-10.707
▁올랐다	-10.7075
▁명령	-10.7078
▁결혼식	-10.7079
▁독자	-10.7079
▁차지하	-10.7083
▁유지할	-10.7083
▁마음도	-10.7088
▁인생이	-10.7089
▁강남	-10.7091
▁보안	-10.7091
▁남자를	-10.7092
▁사람이다	-10.7094
▁거래소	-10.7096
15	-10.7099
▁강화하고	-10.7101
▁모르고	-10.7102
준비	-10.7109
▁올라가	-10.711
▁훼손	-10.7111
▁저축은행	-10.7115
▁청소년	-10.7115
▁결합	-10.7117
▁고급	-10.7118
▁충실	-10.7121
▁든	-10.7124
▁세워	-10.7125
▁책임이	-10.7127
▁해봐요	-10.7127
▁사내	-10.7128
든지	-10.713
생명	-10.715
공연	-10.7152
▁좋아하면	-10.7156
▁라인	-10.7157
▁경우에	-10.7158
▁협조	-10.7158
▁바보	-10.7163
▁엄마와	-10.7163
▁걱정이	-10.7164
▁돌아	-10.7165
▁맨	-10.7166
▁길에	-10.7167
▁준비해	-10.7168
▁아니라면	-10.7169
▁찍어	-10.717
▁발레	-10.717
▁전액	-10.7172
노조	-10.7172
▁가르치는	-10.7174
▁가능성에	-10.7179
▁학부모	-10.7188
▁경우에는	-10.7197
▁해상	-10.72
▁획득	-10.7205
나요	-10.7205
▁시작한	-10.7206
보면	-10.7208
▁증거를	-10.7208
▁딸들	-10.7212
름	-10.7212
▁양형	-10.7212
▁안되	-10.7213
▁유입	-10.7217
▁팬이	-10.7217
▁헤어짐	-10.722
재정	-10.7223
버스	-10.7225
▁없었	-10.7229
▁맥	-10.7231
▁대기	-10.7231
▁문학	-10.7236
▁살기	-10.7237
▁전년	-10.7238
일이	-10.7251
▁속이	-10.7252
▁수원	-10.7258
▁북한을	-10.7259
▁해군	-10.726
얼	-10.7262
▁세대	-10.7265
▁부모님이	-10.7266
놓고	-10.7276
▁대학에서	-10.7278
▁정책이	-10.7281
▁반응	-10.7282
▁부지	-10.7283
▁농	-10.7289
물을	-10.7289
▁이후에	-10.729
블	-10.7293
▁문제와	-10.7296
커	-10.7297
밀	-10.73
▁기계	-10.7301
▁드러내	-10.7304
▁건강한	-10.7304
▁진입	-10.7309
▁회의를	-10.731
김씨	-10.7311
효	-10.7312
▁향한	-10.7313
▁정부에	-10.7319
▁학생들의	-10.732
▁피해가	-10.7322
전문	-10.7324
▁라면	-10.7333
풀	-10.7335
▁사탕	-10.7338
▁아이스크림	-10.7338
▁여건	-10.7348
▁정책에	-10.7348
킹	-10.7351
▁피아노	-10.7353
▁진정	-10.7357
▁메	-10.7358
아침	-10.7358
냈다	-10.7359
엄	-10.7361
시간을	-10.7364
▁신발	-10.7365
▁불과	-10.7368
잘지내고있어	-10.7368
그럼	-10.7369
▁노력이	-10.7369
이렇게	-10.7369
였어	-10.737
오늘은	-10.7372
요즘	-10.7373
소득	-10.7373
▁당당하	-10.7377
기능	-10.738
듯이	-10.7381
▁지원하는	-10.7384
▁찾기	-10.7386
호남	-10.7387
▁이뤄진	-10.7389
▁하러	-10.7391
과정에서	-10.7391
▁서로를	-10.7401
▁정치에	-10.7403
▁이해해	-10.7406
▁말라	-10.7407
▁설레	-10.7411
▁배우고	-10.7411
▁영업이익	-10.7419
음악을	-10.7424
▁미련이	-10.7425
▁약속을	-10.7427
▁몰랐	-10.7429
▁인구	-10.7429
▁연주하는	-10.7432
▁내린	-10.7434
▁재원	-10.7441
▁안나	-10.7441
▁타기	-10.7446
▁맞추	-10.7449
▁지키는	-10.7449
▁움직이	-10.7451
안에	-10.7451
▁왕	-10.7455
▁있었을	-10.7457
▁기여	-10.7458
▁변동	-10.7459
▁벌어	-10.7463
▁최소	-10.7464
▁비싸	-10.7467
▁머물	-10.7469
간에	-10.7469
▁초래	-10.747
▁포항	-10.7472
▁담아	-10.7473
▁욕	-10.7478
g	-10.7483
▁먹으면	-10.7483
▁즐겨	-10.7485
▁심한	-10.7486
읍	-10.7489
▁갈등	-10.7491
▁바꿀	-10.7491
▁뜨거운	-10.7493
▁바뀔	-10.7493
▁배터리	-10.7493
▁잊고	-10.7493
▁컸다	-10.7493
▁어느덧	-10.7493
▁유니폼	-10.7493
▁협박	-10.7493
▁불확실성	-10.7493
▁헤어졌습니다	-10.7493
▁전투	-10.7493
▁지내시나요	-10.7493
▁자존심	-10.7493
▁자연스러운	-10.7494
▁직무	-10.7494
▁노출	-10.7497
▁필요는	-10.7497
▁있었습니다	-10.7497
▁벌금	-10.7499
▁류	-10.75
▁이틀	-10.75
▁방어	-10.7501
▁아닐까요	-10.7502
▁국정농단	-10.7502
▁차라리	-10.7502
▁떨어지는	-10.7503
▁놓치	-10.7504
공원	-10.7504
▁꾸준한	-10.7505
▁물었다	-10.7506
▁34	-10.7506
여기	-10.7506
▁연휴	-10.7509
▁국정조사	-10.7509
▁명절	-10.7511
▁달리기	-10.7512
▁상무	-10.7512
▁소집	-10.7512
▁통화정책	-10.7512
▁싸움	-10.7513
▁도중	-10.7514
▁시작된	-10.7514
▁끊임없	-10.7515
▁제안했다	-10.7519
▁목숨을	-10.752
▁CJ	-10.7521
▁비즈니스	-10.7521
▁제조	-10.7521
마세요	-10.7527
▁새정치민주연합	-10.7527
▁지역사회	-10.7528
▁보유한	-10.7528
▁자본	-10.7528
▁가구	-10.7528
▁진정성	-10.7533
제로	-10.7533
▁돕는	-10.7534
▁되겠다	-10.7535
▁로봇	-10.7536
▁성공적으로	-10.7537
▁이봐	-10.7538
▁먹이를	-10.7538
80	-10.7538
▁됐는데	-10.754
▁지지율	-10.7541
▁스마트	-10.7542
강화	-10.7542
I	-10.7545
▁여자애	-10.7546
▁매출이	-10.7546
▁유형	-10.7548
▁그렇다면	-10.7549
연승	-10.7551
▁작전	-10.7554
점차	-10.7555
▁개인적으로	-10.7558
▁인민	-10.7558
가구	-10.7564
▁최소한	-10.7565
스타	-10.7568
▁기원	-10.757
▁휴가를	-10.7571
▁양측	-10.7575
▁많은데	-10.7576
▁발생했다	-10.7577
▁투어	-10.7577
▁금액	-10.758
▁노선	-10.7581
▁진화	-10.7583
셔	-10.7583
▁누구도	-10.7584
건지	-10.7587
본부장은	-10.759
▁내수	-10.759
▁밖으로	-10.7595
23	-10.7596
▁거두	-10.76
▁되는데	-10.76
▁몰	-10.7605
▁사고를	-10.7608
▁수업에	-10.7616
▁참여할	-10.7622
대가	-10.7622
▁결의	-10.7624
상의	-10.7624
▁만들어야	-10.7624
▁남자는	-10.7627
▁트위터	-10.7628
질을	-10.7631
▁계획하고	-10.7632
▁측이	-10.7632
▁순간이	-10.7633
▁김성	-10.7633
▁기록한	-10.7634
▁누적	-10.7639
▁도시에서	-10.764
▁연예인	-10.7645
▁볼까	-10.7646
▁오지	-10.765
▁참여하는	-10.7654
▁선호	-10.7655
놓	-10.7655
▁일할	-10.7655
년을	-10.7657
▁원전	-10.7659
▁다니고	-10.7663
▁합류	-10.7663
▁글쎄	-10.7665
▁제기되	-10.7665
▁내리	-10.7666
▁선을	-10.767
▁전문성	-10.767
단은	-10.767
대통령이	-10.7671
인이	-10.7672
▁맞이	-10.7677
여개	-10.768
죽	-10.7686
▁괜찮을	-10.7691
방송	-10.7691
▁분위기가	-10.7696
부분	-10.77
▁적자	-10.7701
▁선제적	-10.7707
▁체	-10.7708
▁홈런을	-10.7711
▁안에서	-10.7712
▁이거	-10.7715
▁분들이	-10.7717
▁본인이	-10.7719
침	-10.7719
▁치르	-10.7722
▁공조	-10.7723
▁경제가	-10.7732
▁안정을	-10.7733
▁해체	-10.774
당의	-10.7741
자산	-10.7754
▁수용	-10.7754
▁활용한	-10.7756
줄까	-10.7758
▁많을	-10.776
▁휴식	-10.7761
▁관심사	-10.7764
▁놀이	-10.7764
웅	-10.7764
군에	-10.7765
▁맞은	-10.7767
▁달려	-10.7767
량이	-10.7775
▁널	-10.7775
맞	-10.7777
▁분야의	-10.7782
▁끝을	-10.7782
평가	-10.7785
▁손해	-10.7789
▁시기에	-10.7795
▁다녀	-10.7797
임에	-10.7821
라인	-10.7824
▁앉	-10.7826
▁교사는	-10.7828
동안	-10.7829
▁실내	-10.7832
원은	-10.7833
▁상의	-10.7834
만명	-10.784
▁범	-10.7842
▁역사적	-10.7843
▁전략적	-10.7848
재판	-10.7849
▁데다	-10.7849
다음	-10.785
▁비중이	-10.7851
▁형태	-10.7851
▁남지	-10.7851
브리핑	-10.7855
폰	-10.7857
례	-10.7858
▁시작되	-10.7858
된다면	-10.786
상담	-10.7865
▁인식을	-10.7866
▁버리	-10.7867
채권	-10.7868
중소기업	-10.7868
▁접근	-10.7868
그렇게	-10.7869
괜찮아	-10.7869
종합	-10.787
이러한	-10.7871
▁한국에	-10.7871
미사일	-10.7872
머리	-10.7873
예산	-10.7873
주택	-10.7875
▁다루	-10.7875
▁낮아	-10.7886
▁처분	-10.7891
▁개는	-10.7892
해졌다	-10.7894
▁들어와	-10.7896
▁침대에	-10.7907
효과	-10.7911
▁환승	-10.7916
▁한국인	-10.7918
▁해변에	-10.7928
▁바뀌	-10.7928
판매	-10.7929
▁취해	-10.7932
대선	-10.794
▁성공적	-10.7941
▁레스토랑	-10.7956
▁연락해도	-10.7962
이냐	-10.7966
▁사업자	-10.7966
시절	-10.7966
▁두번째	-10.7967
▁잇따	-10.7968
▁커플	-10.7971
▁추측	-10.7971
조치	-10.7976
▁바지	-10.7978
19	-10.7979
▁제고	-10.7979
안보	-10.7981
▁산업혁명	-10.7981
L	-10.7982
▁받으면	-10.7983
▁추진하는	-10.7983
▁전여친	-10.7983
▁달라진	-10.7987
▁빨간	-10.7989
▁깨닫	-10.7993
▁머무르	-10.7993
▁몇살이니	-10.7993
▁베이컨	-10.7993
▁스킨십	-10.7993
▁줬다	-10.7993
▁버텨	-10.7993
▁무언가	-10.7993
▁커피숍	-10.7993
▁특혜	-10.7993
▁동영상	-10.7993
▁영원히	-10.7994
▁불편	-10.7995
▁여가시간	-10.7995
▁해달라	-10.7996
▁확신한다	-10.7996
▁엄정	-10.7996
대기업	-10.7996
▁부를	-10.7997
▁늘어나	-10.7997
▁만화책	-10.7997
▁갈색	-10.7997
▁죽었다	-10.7998
▁돌아온	-10.7998
▁빠졌다	-10.7998
▁이른	-10.7999
▁이뤄졌다	-10.7999
▁행보	-10.7999
▁남긴	-10.7999
▁늘려	-10.8
▁매출액	-10.8001
▁병원에	-10.8001
▁자회사	-10.8002
▁붕괴	-10.8002
▁체포	-10.8002
▁어쨌든	-10.8003
▁마스크	-10.8003
▁마침내	-10.8003
▁못했	-10.8005
▁위상	-10.8005
▁도박	-10.8005
▁구현	-10.8006
▁원내대변인은	-10.8006
▁옛	-10.8008
▁2020	-10.8008
▁구속영장	-10.8009
▁핵무기	-10.8009
▁MBC	-10.8009
▁살해	-10.801
▁검거	-10.8011
▁엄중	-10.8011
▁민감한	-10.8012
▁산하	-10.8012
▁부족하다	-10.8013
▁과세	-10.8014
▁왜곡	-10.8015
▁동네	-10.8016
▁관점에서	-10.8016
▁몰랐다	-10.8017
자에게	-10.8017
▁싶지만	-10.8018
▁제공한다	-10.8019
▁민심	-10.802
월말	-10.8021
▁AI	-10.8021
▁톡	-10.8022
간다	-10.8023
▁어렵게	-10.8025
▁그다지	-10.8025
▁진행될	-10.8025
▁생각하면	-10.8026
▁폭행	-10.8027
▁분리	-10.8028
▁서울중앙지법	-10.8029
▁기획재정부	-10.8029
▁KBS	-10.803
▁내이름은	-10.8035
▁슈퍼	-10.8035
▁솔직히	-10.8035
▁일종	-10.8039
님	-10.8041
▁조심	-10.8044
▁이유다	-10.8046
▁재벌	-10.805
▁상태다	-10.805
▁만들겠다	-10.8053
▁백화점	-10.8055
▁선수단	-10.8056
▁그릴	-10.8056
▁아베	-10.8057
▁뒤로	-10.8058
다니	-10.8059
▁각오를	-10.8059
▁신청을	-10.8065
▁대행	-10.8065
▁보조	-10.8065
▁다들	-10.8067
▁생긴다	-10.807
▁표현이	-10.8074
▁식당에서	-10.8075
▁경고	-10.8077
▁건전	-10.8077
▁달라지는	-10.8079
▁그렇	-10.8081
▁토지	-10.8082
▁이성	-10.8084
▁서로에	-10.8086
일간	-10.8086
▁KT	-10.8088
이었습니다	-10.8091
▁전무	-10.8093
▁수차례	-10.8093
▁배당	-10.8094
▁다음에는	-10.8094
▁모를	-10.8101
▁놈	-10.8104
▁싫은	-10.8106
▁간부	-10.8107
▁PC	-10.8108
결과	-10.8109
▁먼	-10.8111
▁전반에	-10.8112
성은	-10.8114
▁아직까지	-10.8115
▁중구	-10.8128
장과	-10.8136
▁초등학교	-10.8138
책을	-10.8154
▁유지하고	-10.8154
▁부족해	-10.8155
▁왔고	-10.8157
▁맡기	-10.8159
▁결과에	-10.8167
▁U	-10.8168
▁중이	-10.8171
▁파도	-10.8171
▁완료	-10.8171
▁무릎	-10.8172
상대	-10.8174
▁지내요	-10.8179
70	-10.818
▁주면	-10.8182
▁반응이	-10.8185
▁만나기	-10.8186
회를	-10.8187
▁행정부	-10.819
▁계획은	-10.8191
▁언론과	-10.8195
▁사랑하면	-10.8198
시설을	-10.8198
▁갈등을	-10.82
▁아버지는	-10.8201
▁대피	-10.8202
가치	-10.8202
▁원인이	-10.8206
수출	-10.8207
▁애들	-10.8209
해진	-10.8209
▁상태가	-10.8213
사와	-10.8214
▁보유	-10.8215
▁남을	-10.8225
▁들어오	-10.8227
주길	-10.8228
구조	-10.8229
▁법인	-10.8236
▁초점	-10.8237
▁돼서	-10.8241
▁눈물이	-10.8245
▁국회에	-10.8246
▁코스	-10.8249
▁돌려	-10.8249
▁같지	-10.825
▁안정적	-10.8253
▁사정	-10.8253
▁수단	-10.8256
생활	-10.8261
비가	-10.8262
으면서	-10.8263
▁사서	-10.8271
▁주관	-10.8271
▁점심을	-10.8275
▁유사	-10.8282
▁설득	-10.8286
져야	-10.8291
▁의원에	-10.8294
▁돌아가	-10.8298
계약	-10.83
졌지만	-10.83
▁소명	-10.8301
▁위축	-10.8305
▁뛰어	-10.8307
▁테	-10.8311
▁수급	-10.8316
▁아프네	-10.8317
리스	-10.8323
▁둔화	-10.8324
차를	-10.8325
틀	-10.8325
▁행	-10.8327
▁이해가	-10.8329
▁구조를	-10.833
▁국장	-10.8332
합의	-10.8336
▁결정이	-10.8336
▁이재	-10.8337
사전에	-10.8338
방식	-10.8339
기와	-10.8345
▁고향	-10.8346
몰	-10.8348
간담회	-10.8349
▁흔	-10.8356
사업을	-10.8363
▁받아들	-10.8364
▁특성	-10.8364
▁손에	-10.8365
▁온전	-10.8365
▁기운	-10.8366
찰	-10.8368
▁아끼	-10.837
▁운전하	-10.837
21	-10.8376
▁났	-10.8377
▁시일	-10.8381
▁당부	-10.8383
▁힘들었	-10.8383
▁끝은	-10.8384
센	-10.8385
영국	-10.8387
금감원	-10.8393
▁하던	-10.8393
뒤	-10.8395
▁전해	-10.8395
▁희생자	-10.8395
함께	-10.8398
▁콘서트에	-10.84
▁낮추	-10.8402
▁시대에	-10.8403
▁손질	-10.8404
▁다를	-10.8405
외교부	-10.8408
외국인	-10.8408
국민의당	-10.8409
▁주장하는	-10.841
룡	-10.8411
▁자라	-10.8421
▁겨울	-10.8421
▁씨	-10.8429
스를	-10.8435
▁이주	-10.8442
▁전역	-10.8445
됨에	-10.8445
▁농구	-10.8446
▁확실하	-10.8451
▁입는	-10.8455
금액	-10.8456
14	-10.8458
▁영광	-10.8459
심사	-10.8461
▁적정	-10.8464
▁등도	-10.8465
▁페이스북에	-10.8467
▁삶에	-10.847
나무	-10.8476
법원	-10.8479
▁모임	-10.848
▁물고기	-10.848
했었다	-10.8481
교수	-10.8489
▁이곳	-10.849
▁이름의	-10.8492
▁지루	-10.8494
리에	-10.8497
d	-10.8503
▁초청	-10.8506
▁지나치	-10.8508
받았다	-10.8508
▁주민들이	-10.8509
▁당내	-10.8514
▁자랐	-10.8514
▁성공을	-10.8515
▁잊는	-10.8518
▁자동	-10.8518
▁꺼내	-10.8518
▁넓은	-10.8519
▁넣고	-10.8519
▁도마뱀	-10.8519
▁분홍색	-10.8519
▁실효성	-10.8519
▁싶으	-10.8519
▁어울려	-10.8519
▁읽기	-10.8519
▁할로윈	-10.8519
▁CCTV	-10.8519
▁순매수	-10.852
▁성능	-10.852
▁무엇인지	-10.852
▁신흥국	-10.852
▁평범	-10.852
▁보도자료를	-10.852
▁지쳤어	-10.852
▁헤어졌어	-10.852
▁놀라운	-10.8521
▁발목	-10.8521
▁장거리	-10.8522
▁골든	-10.8522
▁퇴진	-10.8522
▁프사	-10.8523
▁오디션	-10.8523
▁비핵화	-10.8523
▁대통령에	-10.8524
▁유력	-10.8524
▁않았지만	-10.8526
▁불가능하다	-10.8527
▁거리	-10.8528
▁지하철	-10.8528
▁교환	-10.8529
▁통증	-10.8529
▁인공지능	-10.853
▁대선후보	-10.853
▁진단했다	-10.853
▁전기차	-10.8531
▁잡았다	-10.8532
▁제시했다	-10.8532
▁않길	-10.8533
주간	-10.8533
▁확인됐다	-10.8533
▁염두에	-10.8533
▁바르	-10.8533
심리	-10.8533
▁자발적	-10.8535
▁먹으면서	-10.8536
▁선고했다	-10.8536
▁좋겠지만	-10.854
▁감당	-10.8541
▁보았	-10.8542
▁정의당	-10.8544
▁덕분	-10.8544
▁사람마다	-10.8545
▁33	-10.8547
▁드러나	-10.8547
▁부정적인	-10.8547
▁승진	-10.8548
공장	-10.8548
▁사이버	-10.8549
▁선두	-10.8552
했더니	-10.8553
▁속도로	-10.8554
▁H	-10.8555
▁제기했다	-10.8557
▁지역구	-10.8558
▁식단	-10.8558
▁곳을	-10.8559
▁네티즌들은	-10.8559
▁등록금	-10.8561
▁막말	-10.8561
▁들었어	-10.8563
▁돌보는	-10.8565
▁폭력	-10.857
▁어린이집	-10.8571
▁영향력	-10.8571
▁깊	-10.8572
▁단독	-10.8573
단을	-10.8579
▁재료	-10.8579
됐습니다	-10.8583
▁중요성	-10.8586
수도	-10.8586
▁가야지	-10.8587
▁후폭풍이	-10.8588
▁소년들	-10.8589
▁남기	-10.8589
▁문제도	-10.859
▁공감대	-10.859
▁지출	-10.8593
▁정부를	-10.8593
▁생겼다	-10.8593
▁혁명	-10.8594
실점	-10.8595
대회	-10.8597
▁과감	-10.8597
주로	-10.8599
▁마련한	-10.8599
▁속도	-10.86
▁그었다	-10.86
▁일요일	-10.8601
▁주식시장	-10.8604
▁쇼핑하는	-10.8606
▁진행한다	-10.8606
▁세계적인	-10.8608
▁소식	-10.8609
▁소위	-10.8609
▁운이	-10.861
▁해보는	-10.861
정작	-10.8611
▁했을	-10.862
▁가르치고	-10.8627
▁슈	-10.8631
▁특화	-10.8632
▁지위	-10.8632
▁진행하는	-10.8632
▁꿈이	-10.8632
▁점에	-10.8633
사랑	-10.8634
▁한국은	-10.8634
▁의원들이	-10.8643
▁그녀에게	-10.8645
가족	-10.8646
▁있나요	-10.8648
▁연금	-10.8649
▁이달	-10.8651
▁것만	-10.8654
▁한쪽	-10.8665
도시	-10.8665
경쟁	-10.867
▁미국이	-10.8675
▁강세	-10.8676
▁슬퍼	-10.868
▁부정적	-10.8685
▁한국당	-10.8698
▁중동	-10.8701
▁농담을	-10.8704
22	-10.8704
▁흔적	-10.8706
▁읽는다	-10.8708
보이	-10.8709
되기	-10.8713
이라면서도	-10.8716
▁회의에서	-10.8717
▁충돌	-10.8722
으므로	-10.8724
▁교장	-10.8725
▁않았고	-10.8727
압	-10.8727
▁아프	-10.8728
▁극대화	-10.8735
▁예의	-10.8735
▁태도를	-10.8736
▁남친이	-10.8742
▁한때	-10.8743
▁중국과	-10.8746
었는데	-10.8749
▁방한	-10.8753
에겐	-10.8753
▁시기가	-10.8754
▁""5	-10.8758
이번에	-10.8759
했나봐	-10.8762
▁팀에	-10.8763
노동	-10.8768
▁충	-10.8769
▁취하고	-10.8777
▁임대	-10.8782
차전	-10.8783
▁여건이	-10.8787
▁트럭	-10.8787
▁진행한	-10.879
▁카드를	-10.8792
▁가본적	-10.8794
시가	-10.8794
기만	-10.8797
▁선물이	-10.8805
▁불이	-10.8808
▁팀장	-10.881
▁주변에	-10.8811
국제	-10.8812
▁그리워	-10.8815
▁아니라는	-10.8815
▁예비	-10.8816
▁수렴	-10.8816
▁이래	-10.8827
▁한국과	-10.8828
▁진보	-10.8831
▁한은	-10.8833
쇼	-10.8834
▁운전하는	-10.8834
▁읽어	-10.8838
▁측에	-10.884
60	-10.8842
여행	-10.8845
아시아	-10.8847
▁일어나는	-10.8851
▁우리나라의	-10.8854
▁따지	-10.8858
▁현재의	-10.8859
짐	-10.8862
▁안하고	-10.8865
▁딸이	-10.8866
머	-10.8868
대변인은	-10.8872
▁퍼	-10.8876
▁후보와	-10.888
▁학교를	-10.8885
군의	-10.8887
▁이적	-10.8888
▁지연	-10.8897
▁신경을	-10.8897
▁잘해	-10.8905
▁나보다	-10.8908
모델	-10.8913
▁근무하	-10.8918
▁내지	-10.8918
전쟁	-10.8921
년의	-10.8927
▁확대되	-10.8936
솔	-10.8943
▁케빈이	-10.8944
분석	-10.8947
칼	-10.8948
▁충격	-10.8949
하다가	-10.8949
남자	-10.895
유럽	-10.895
PC	-10.8951
▁맞고	-10.8958
정당	-10.8961
나라	-10.8961
미래	-10.8961
여러	-10.8961
국방부	-10.8962
업무	-10.8963
▁옆	-10.8963
▁이중	-10.8964
▁걷는	-10.8966
▁증진	-10.8969
▁맞았	-10.897
행사	-10.8974
▁온다	-10.8975
▁이용하는	-10.8982
▁만화	-10.8983
타날	-10.8985
▁육	-10.8987
▁자문	-10.8989
▁받아들여	-10.8991
▁헤어지	-10.8992
▁보냈	-10.8992
▁비서실장	-10.8992
▁대학생	-10.8995
▁나누	-10.8999
▁시작이	-10.8999
▁명예	-10.8999
▁의원과	-10.9003
▁들어간	-10.9007
복지	-10.9008
▁냄새	-10.9009
▁염색	-10.9012
▁벗어	-10.9015
▁경계	-10.9015
▁직전	-10.9016
▁미래에	-10.9022
차량	-10.9023
정권	-10.9026
▁기대할	-10.9026
▁국정감사	-10.9032
개로	-10.9032
▁맑	-10.9036
▁가득	-10.9039
▁끝났	-10.904
▁단축	-10.9044
▁바깥	-10.9044
▁좋아하는게	-10.9045
대의	-10.9045
기분이	-10.9045
▁서면	-10.9049
▁건가	-10.9051
▁추진해	-10.9051
▁멤버	-10.9052
▁강연	-10.9054
▁메뉴	-10.9055
▁무엇이든	-10.9055
톤	-10.9056
▁집이	-10.9056
▁""8	-10.9056
▁역할이	-10.9058
▁상황은	-10.9059
따라	-10.906
▁류현진	-10.9061
딩	-10.9062
▁정례	-10.9062
▁이겨내	-10.9062
구를	-10.9062
p	-10.9066
시장은	-10.9069
건가	-10.9069
▁따르	-10.9069
▁융합	-10.907
▁들을	-10.9071
▁특허	-10.9071
▁후속	-10.9074
▁관해	-10.9074
▁조속	-10.9074
딘	-10.9075
▁블로그	-10.9075
▁좋구나	-10.9075
▁내놨다	-10.9075
▁스케이트보드	-10.9075
▁투명성	-10.9075
▁드레스	-10.9075
▁귀여워	-10.9075
▁비춰	-10.9075
▁불평	-10.9076
▁단것을	-10.9077
▁최순실	-10.9077
▁복원	-10.9078
▁도울	-10.9078
▁커뮤니티	-10.9079
▁지혜	-10.9079
▁대량	-10.908
▁지목	-10.9081
▁일하다가	-10.9081
▁다짐했다	-10.9081
회말	-10.9081
▁커질	-10.9081
▁실시간	-10.9082
▁길러	-10.9082
▁조달	-10.9083
▁컨설팅	-10.9083
▁다음날	-10.9083
▁짝남이랑	-10.9083
▁자매	-10.9084
▁10%	-10.9084
▁추구하는	-10.9084
▁견해	-10.9085
▁헤아리	-10.9085
▁볼티모어	-10.9086
▁골라	-10.9086
▁순수	-10.9087
▁외모	-10.9087
▁힘들겠지만	-10.9088
▁결혼했니	-10.9088
▁동거	-10.9088
▁고소	-10.9089
▁떨리	-10.9089
▁금품	-10.909
▁정확하게	-10.9091
▁지갑	-10.9091
▁솔로	-10.9091
▁관계에	-10.9093
▁연출	-10.9093
▁홍준표	-10.9093
▁차별화	-10.9093
▁제외하고	-10.9094
▁매체	-10.9094
▁기준금리	-10.9095
▁빗	-10.9095
▁규칙	-10.9095
▁후회하지	-10.9096
▁높여	-10.9097
▁재차	-10.9097
음을	-10.9098
▁무사	-10.9099
▁판정	-10.91
▁손흥민	-10.91
▁불신	-10.91
▁카메라	-10.91
▁뇌	-10.9101
▁감안	-10.9105
▁편하게	-10.9105
T	-10.9111
▁예약	-10.9111
지점	-10.9112
▁않을까요	-10.9113
km	-10.9113
▁도서	-10.9114
▁명시	-10.9114
▁증권사	-10.9114
▁동양	-10.9115
▁400	-10.9115
▁철학	-10.9117
▁탄다	-10.9118
▁통계	-10.9119
▁아침이야	-10.912
▁재난	-10.9121
▁하이킹에서	-10.9124
주지	-10.9125
심한	-10.9126
▁합의했다	-10.9126
해주는	-10.913
▁기본적으로	-10.9131
▁차가	-10.9132
▁대단한	-10.9133
▁농가	-10.9134
▁산정	-10.9135
▁높일	-10.9138
▁당선인	-10.9144
▁그에게	-10.9146
계획을	-10.9147
▁논리	-10.9148
▁유학	-10.9149
▁믿음	-10.9151
▁흘렀	-10.9153
세를	-10.9153
장의	-10.9154
역에서	-10.9157
▁0	-10.9159
루수	-10.9162
▁손주들	-10.9162
▁금융권	-10.9163
▁그렇지만	-10.9163
▁있겠다	-10.9164
함이	-10.9165
▁기울이고	-10.9166
현대	-10.917
▁공정위	-10.917
▁화학	-10.9171
▁시점에서	-10.9171
▁원한다	-10.9173
▁필요하다는	-10.9176
▁왔는데	-10.9178
▁연주하고	-10.9183
▁의원들의	-10.9187
▁노사	-10.9189
▁무게	-10.919
▁담은	-10.9193
▁피아노를	-10.9197
▁플로리다	-10.9198
▁그것도	-10.9198
▁가세요	-10.9201
▁해주고	-10.9202
▁기업에	-10.9205
▁운	-10.9207
▁가족들	-10.9209
▁신호	-10.9211
▁대비해	-10.9217
24	-10.9219
▁증언	-10.922
▁치유	-10.922
당이	-10.9223
▁미군	-10.9227
▁경위	-10.9232
▁고객들이	-10.9232
▁뭐든	-10.9233
렁	-10.9236
▁현재까지	-10.9248
▁치과	-10.925
▁아내가	-10.9251
▁투자자들	-10.9251
가격	-10.9255
▁이상이	-10.9256
▁늘어	-10.9257
▁수영하는	-10.9265
▁지났네	-10.9273
▁일본에	-10.9275
▁53	-10.9282
▁항공기	-10.9284
셔서	-10.9284
▁나라에서	-10.9287
▁박씨	-10.929
▁회사가	-10.9292
▁여자를	-10.9295
▁파괴	-10.9295
▁입장이	-10.93
▁전세	-10.93
▁딸기	-10.9305
▁포인트	-10.9307
▁해주는	-10.9311
건강	-10.9312
▁정당이	-10.9312
기분	-10.9315
▁잊어	-10.9316
▁가르치	-10.9319
률	-10.932
▁여성이	-10.933
▁""200	-10.9332
견	-10.9332
였는데	-10.9335
▁상대방을	-10.9335
▁열린다	-10.9344
참	-10.9345
▁당했다	-10.9348
▁새해	-10.9354
▁사회에	-10.9356
실장은	-10.9356
▁죽어	-10.9357
▁얻어	-10.936
▁안전한	-10.9362
▁비전	-10.9362
야겠다	-10.9368
풍	-10.9368
▁되면서	-10.9378
▁고치	-10.9379
▁실질적	-10.9388
▁이것은	-10.9391
세가	-10.9392
▁유지하는	-10.9396
해주길	-10.9397
▁호소	-10.94
▁수준이	-10.94
습	-10.9406
중이야	-10.9406
킨	-10.9407
론을	-10.9412
▁군인	-10.9413
▁마련해	-10.9413
▁나지	-10.9419
▁서울에서	-10.9419
▁배우자	-10.9419
▁사정이	-10.9425
▁사람으로	-10.9426
팀이	-10.9431
주를	-10.9438
▁보완	-10.9443
▁달리는	-10.9449
▁아들이	-10.9453
▁높이고	-10.9454
대해	-10.9454
▁정신적	-10.9458
▁집착	-10.9464
자들의	-10.9465
▁워	-10.9465
혈	-10.9467
▁동참	-10.9469
련	-10.9469
▁중도	-10.947
없다	-10.9472
▁판단해	-10.9472
▁국민적	-10.9475
분기에	-10.9483
▁심어	-10.9486
해외	-10.9486
▁돼지	-10.9491
관은	-10.9491
▁편의	-10.9492
▁등급	-10.9492
▁중국인	-10.9496
혼	-10.9498
▁사랑할	-10.9498
▁공기	-10.9501
▁사랑한	-10.9506
▁조사에서	-10.9507
▁"10	-10.951
▁환	-10.9513
▁생각만	-10.9515
▁정책과	-10.9515
휴	-10.9517
살이다	-10.9518
▁32	-10.9518
슈	-10.9518
▁출장	-10.9522
끼	-10.9526
W	-10.9532
▁행복	-10.9534
▁근	-10.9534
▁균형	-10.9537
꽃	-10.9537
이명박	-10.9537
3000	-10.9538
김정은	-10.9538
▁고맙다	-10.9538
세월호	-10.9538
대단하다	-10.9541
그냥	-10.9541
매체	-10.9542
세워	-10.9543
▁회견	-10.9546
▁이별에	-10.9554
▁사이트	-10.9556
본적이	-10.9556
▁구축해	-10.956
율이	-10.9565
▁채워	-10.9566
▁취향	-10.9567
말했다	-10.957
실제로	-10.9572
▁문신	-10.9577
▁쌓아	-10.9582
여명의	-10.9584
▁수익률	-10.9586
▁일어났	-10.9589
▁재밌	-10.9595
▁예전	-10.9596
렸	-10.96
▁문의	-10.9601
서울시	-10.9602
▁경찰이	-10.9603
▁감안해	-10.9604
▁첨단	-10.9604
▁다르겠지	-10.9605
최고	-10.9605
쳤	-10.9609
▁택시	-10.961
▁녹	-10.9615
▁마셔	-10.9616
▁추워	-10.9619
김용	-10.9619
팅	-10.9619
리가	-10.9622
사드	-10.9622
▁뜻이	-10.9622
▁하거나	-10.9626
▁한국이	-10.9628
▁임직원들	-10.9632
▁참여하	-10.9632
▁얻고	-10.9635
▁늦어	-10.9636
▁추적	-10.9636
▁했나	-10.9638
▁무섭	-10.9641
▁비슷하	-10.9642
▁허락	-10.9644
촌	-10.9646
▁보일	-10.9646
▁보여준	-10.9647
▁캐	-10.9649
렌	-10.965
▁노인	-10.9651
▁인사청문회	-10.9652
▁여러분께	-10.9653
r	-10.9655
탕	-10.9655
▁헌신	-10.9658
▁남겨	-10.9659
▁비서관	-10.9661
▁근절	-10.9662
▁디즈니	-10.9663
▁공략	-10.9663
▁기숙사	-10.9663
▁자책하지	-10.9663
▁차근차근	-10.9663
▁코미디	-10.9663
▁흘리	-10.9663
▁압수수색	-10.9663
▁판시했다	-10.9663
▁중산층	-10.9663
▁시너지	-10.9663
▁일일	-10.9663
▁도대체	-10.9663
▁가만히	-10.9663
▁거뒀다	-10.9664
▁같았다	-10.9664
▁자격증	-10.9664
▁돌아갈	-10.9665
▁위헌	-10.9665
▁취급	-10.9665
▁쇼핑하러	-10.9665
▁가르쳐	-10.9665
▁읽었어	-10.9665
▁힘내세요	-10.9666
▁들어갔다	-10.9666
명에	-10.9666
▁시민단체	-10.9666
▁배달	-10.9667
▁제휴	-10.9667
▁바이올린	-10.9667
▁필리핀	-10.9667
▁견제	-10.9667
▁사랑스러운	-10.9668
▁쌀	-10.9668
▁블루	-10.9669
▁압력	-10.9669
▁사장이	-10.9669
▁피곤한	-10.967
▁없습니다	-10.967
▁늘었다	-10.9671
▁건립	-10.9671
▁기각	-10.9672
▁편의점	-10.9673
▁따라잡	-10.9674
▁가본	-10.9674
▁컬러	-10.9675
▁딴	-10.9675
▁클라우드	-10.9675
▁타러	-10.9675
▁경제활성화	-10.9675
▁형태로	-10.9675
▁않았던	-10.9676
▁신용카드	-10.9676
▁누구보다	-10.9678
▁살이니	-10.9678
▁유감	-10.9679
▁철수	-10.9679
▁진행됐다	-10.968
▁기성용	-10.9682
▁행태	-10.9684
▁생각하니	-10.9684
▁평창	-10.9684
▁먹니	-10.9684
▁있겠지만	-10.9685
▁걸릴	-10.9685
▁않았나	-10.9685
▁지시했다	-10.9685
▁기자	-10.9686
▁임상	-10.9688
지에	-10.9689
▁마이크	-10.9689
▁여러가지	-10.9689
▁메인	-10.969
▁탈퇴	-10.969
▁샤워	-10.969
▁활발한	-10.9691
▁거친	-10.9691
▁일환	-10.9692
▁예상보다	-10.9694
▁화면	-10.9695
▁평가한다	-10.9695
▁영화관	-10.9697
▁학생이야	-10.9697
▁단단	-10.9698
▁예상했다	-10.9699
▁예금	-10.97
▁설명이다	-10.9701
▁매입	-10.9702
▁좋아하나	-10.9705
▁포장	-10.9705
▁민주통합당	-10.9706
▁EU	-10.9706
▁전달했다	-10.9707
대강	-10.9708
▁출신이다	-10.9708
▁주었다	-10.9709
▁곡	-10.9709
▁단어	-10.9711
▁의문	-10.9711
▁당이	-10.9712
▁도와줄	-10.9713
▁소문	-10.9713
▁그것들은	-10.9713
▁유승민	-10.9713
▁고속도로	-10.9713
▁국면	-10.9713
▁회동	-10.9714
▁않는데	-10.9715
▁물러나	-10.9715
▁월드	-10.9717
▁두루	-10.9718
▁부패	-10.9718
▁극복할	-10.9719
▁받아들이기	-10.9719
▁한국에서	-10.972
▁국정감사에서	-10.9721
▁안보리	-10.9721
▁만들었어	-10.9722
▁시작한다	-10.9722
▁엄	-10.9723
대응	-10.9723
▁브라질	-10.9725
▁제약	-10.9726
버리	-10.9727
▁점포	-10.9728
▁친박	-10.9728
▁것이냐	-10.9728
▁간절	-10.9729
▁의회	-10.973
▁대우	-10.973
▁잡지	-10.9731
▁끌고	-10.9732
▁타코를	-10.9735
▁위원	-10.9735
▁미디어	-10.9737
▁싫어해	-10.9737
▁진상	-10.9743
▁날에	-10.9747
▁알아야	-10.9747
▁길게	-10.9748
▁TF	-10.9749
▁공장에서	-10.975
▁흐름을	-10.975
▁유족	-10.9754
▁순위	-10.9754
회장	-10.9755
▁좋아하는지	-10.9756
▁생겼어	-10.9756
▁결론을	-10.9756
▁화를	-10.9759
▁제공하기	-10.9762
▁밝히고	-10.9762
하면서도	-10.9763
사에	-10.9764
▁갖추고	-10.9764
줘	-10.9766
▁넘기	-10.9769
▁부회장은	-10.977
스의	-10.9771
▁중국어	-10.9778
▁심의	-10.9779
▁업체들	-10.978
▁수록	-10.9782
▁우울해	-10.9789
▁발을	-10.979
만달러	-10.979
▁행장	-10.9792
▁연합	-10.9793
▁강요	-10.9795
▁넘어서	-10.9796
▁씨가	-10.9798
▁가방	-10.9799
▁있겠지	-10.9801
▁차리	-10.9802
▁보게	-10.9804
▁호감이	-10.9804
▁클럽에	-10.9804
▁얼굴이	-10.9806
▁수주	-10.9808
시켜야	-10.9811
▁하더라도	-10.9814
▁실시한다	-10.9814
▁함께하는	-10.9818
▁국제적	-10.9819
▁세트	-10.982
▁추진하겠다	-10.9822
줘야	-10.9823
▁상황이다	-10.9825
▁해경	-10.9825
▁들어가는	-10.9827
▁모자	-10.9827
▁겨울이	-10.9828
▁위험한	-10.9832
▁트럭을	-10.9832
▁떨고	-10.9838
▁서점	-10.9841
본인	-10.9842
전문가	-10.9844
▁지원한다	-10.9846
▁좋았	-10.9851
▁일년	-10.9852
▁안전성	-10.9862
대통령은	-10.9863
▁맡겨	-10.9863
▁기준이	-10.9863
▁전파	-10.9865
집에서	-10.9867
페	-10.9872
▁누군가를	-10.9875
▁가스	-10.9876
▁대학생이	-10.9877
발전	-10.9878
▁이뤄지는	-10.9878
겠는가	-10.9878
▁파란색	-10.9881
▁요구한	-10.9884
▁봤을	-10.9885
▁인식이	-10.9886
▁않았을	-10.9888
▁이란	-10.989
사에서	-10.9891
▁되기도	-10.9892
▁정부에서	-10.9893
▁이용한	-10.9897
여부	-10.9901
▁직접적	-10.9901
▁갖는	-10.9904
화된	-10.9911
이므로	-10.9912
▁지급하	-10.9915
호가	-10.9916
▁M	-10.9917
▁지점	-10.9921
악	-10.9931
▁총수	-10.9931
on	-10.9942
모를	-10.9945
됐지만	-10.9945
▁적지	-10.9945
▁초과	-10.9952
지수	-10.9953
▁귀가	-10.9954
40	-10.9977
▁하이	-10.9979
▁아들을	-10.9982
▁영화는	-10.9989
▁사실에	-10.999
부가	-11
▁않아서	-11.0002
▁배출	-11.0003
제품	-11.0003
▁평소에	-11.0004
▁한정	-11.0005
작업	-11.0007
▁옥	-11.0012
▁한국을	-11.0014
▁개발에	-11.0018
▁상태를	-11.0023
▁학생이	-11.0038
▁당일	-11.0041
▁개시	-11.0042
▁규정을	-11.0042
E	-11.0044
물로	-11.0045
콜	-11.0047
이었지만	-11.0047
▁사람들과	-11.0054
▁당한	-11.0054
▁사랑으로	-11.0055
▁잡을	-11.0067
축구	-11.007
헤	-11.0073
▁썸남이	-11.0079
▁둘이	-11.0079
▁지난주	-11.008
활	-11.0082
앞	-11.0086
▁내용에	-11.009
▁경제에	-11.0091
▁밤을	-11.0092
▁경쟁이	-11.0105
▁실장	-11.0108
맥	-11.0112
저도	-11.0116
▁뒷받침	-11.0121
잔	-11.0125
▁간호사	-11.0125
▁꽃을	-11.0126
▁알기	-11.0135
▁놓아주	-11.0138
▁L	-11.0139
▁돌리	-11.0142
명에게	-11.0143
▁잠수	-11.0143
▁그에	-11.0144
▁썸타는	-11.0147
▁출신인	-11.015
▁수립	-11.0151
벨	-11.0152
하더라도	-11.0153
었나봐	-11.0158
실제	-11.0158
저축은행	-11.0161
맛	-11.0161
▁존중	-11.0162
프로그램	-11.0162
힘	-11.0162
마지막	-11.0164
▁나만의	-11.0165
▁벤처	-11.0166
▁들려	-11.0166
▁연락하는	-11.0167
원칙	-11.0173
▁바위	-11.0173
▁풀고	-11.0173
▁출	-11.0174
▁관중	-11.0179
▁늘어나는	-11.0181
▁소녀들	-11.0186
▁구분	-11.0189
▁김모씨	-11.0196
▁여성들	-11.0197
▁전남친	-11.0197
았으면	-11.0207
▁레이	-11.0207
▁수학	-11.021
▁습관이	-11.021
광주	-11.0214
▁I	-11.0215
투표	-11.0216
어도	-11.0217
▁항공	-11.0221
화가	-11.0222
▁문제점	-11.0226
▁선택이	-11.0227
▁휴가	-11.0227
▁오싹해	-11.0229
경기에서	-11.023
▁충족	-11.0238
▁내게	-11.0238
▁적합	-11.0239
▁했다고	-11.024
▁협의해	-11.0241
▁한해	-11.0242
▁벽	-11.0245
▁썸이	-11.0246
▁물량	-11.0247
▁해줄	-11.0249
▁런던	-11.0251
▁고객에게	-11.0251
▁원활	-11.0251
▁놀라	-11.0251
▁몰아	-11.0252
▁44	-11.0254
▁모르	-11.0256
▁어울리는	-11.0258
▁아름답	-11.026
▁쉽	-11.026
▁결혼할	-11.0261
만원에	-11.0262
▁만나면	-11.0264
▁골키퍼	-11.027
▁빼앗	-11.0271
▁보고싶어	-11.0273
국민들	-11.0277
▁뽑아	-11.0277
▁약자	-11.0279
▁회계	-11.0281
램	-11.0281
▁비례대표	-11.0282
보수	-11.0282
겠느냐	-11.0283
재단	-11.0285
▁심정	-11.0286
▁넣어	-11.0286
탑	-11.0287
▁뒤늦게	-11.0288
▁사귈	-11.0288
▁쌍둥이	-11.0288
▁쌓여	-11.0288
▁애널리스트	-11.0288
▁읽을	-11.0288
▁거꾸로	-11.0288
▁섭취	-11.0288
▁일축했다	-11.0288
▁부연했다	-11.0288
▁맘고생	-11.0288
▁반문했다	-11.0288
▁탑재	-11.0288
▁업데이트	-11.0288
▁노트북	-11.0288
▁드럼	-11.0288
▁도쿄	-11.0288
▁낮잠	-11.0288
▁얼마든지	-11.0289
▁지방선거	-11.0289
▁어떠세요	-11.0289
▁졸려	-11.0289
거든	-11.029
▁떠날	-11.029
▁좋을텐데	-11.0291
▁따뜻하게	-11.0292
▁유감이야	-11.0292
▁내정자	-11.0292
▁만났는데	-11.0292
▁시상식	-11.0292
▁걸린	-11.0292
▁하루하루	-11.0292
▁어쩌지	-11.0292
▁개인정보	-11.0293
▁동구	-11.0293
▁놀랍다	-11.0294
▁면제	-11.0294
감사	-11.0294
▁즐겁게	-11.0294
▁마쳤다	-11.0294
▁시사했다	-11.0294
▁멋질	-11.0294
▁노예	-11.0296
▁알았다	-11.0296
리고	-11.0297
▁20%	-11.0297
▁진료	-11.0298
▁잊혀지	-11.0299
▁그쳤다	-11.0299
▁보급	-11.0299
▁이어졌다	-11.03
▁아쉽다	-11.03
▁동북아	-11.03
▁인테리어	-11.03
▁카지노	-11.03
▁사소한	-11.0301
▁방치	-11.0301
▁첫날	-11.0302
▁구조개혁	-11.0302
▁현명	-11.0302
에서부터	-11.0302
▁밴	-11.0303
▁미치지	-11.0304
▁말았다	-11.0304
▁잠재력	-11.0304
▁나아질	-11.0305
▁입단	-11.0305
▁평양	-11.0306
▁흔들리지	-11.0307
▁졸업했어	-11.0307
▁기득권	-11.0309
▁경제민주화	-11.0309
▁들었	-11.0309
팀을	-11.0309
▁몰래	-11.031
▁건의	-11.031
▁이어갈	-11.0311
▁남녀	-11.0311
▁전담	-11.0311
▁문득	-11.0311
▁하다보면	-11.0311
▁산책시키고	-11.0312
▁육아	-11.0312
▁측근	-11.0313
▁사후	-11.0313
▁돕는다	-11.0314
▁신용	-11.0315
▁깜	-11.0317
▁끝났다	-11.0317
▁갈까	-11.0317
▁동반성장	-11.0317
▁번씩	-11.0318
▁잠실	-11.0319
▁당연한	-11.0322
▁착한	-11.0325
▁졸	-11.0325
였지만	-11.0325
▁오바마	-11.0326
▁상환	-11.0326
▁국경	-11.0327
▁감면	-11.0327
▁진술했다	-11.0328
▁당대표	-11.033
▁계좌	-11.0331
웨이	-11.0331
▁말하며	-11.0334
주신	-11.0335
▁더워	-11.0336
관에서	-11.0339
▁처음이다	-11.0339
▁국내에서	-11.0339
▁떼	-11.0342
▁음료	-11.0343
▁실질적으로	-11.0344
▁살지	-11.0346
▁누구와	-11.0346
▁좋은아침	-11.0346
▁쓴다	-11.0347
▁있네요	-11.0348
▁정지	-11.0348
방지	-11.0349
▁지고	-11.0349
줄래	-11.0349
▁채소	-11.035
▁주차장	-11.0351
▁서버	-11.0352
▁진행되	-11.0352
▁말하면	-11.0352
▁짝사랑하는	-11.0354
검토하고	-11.0355
▁노무현	-11.0358
▁대상이	-11.0358
▁좌	-11.0359
▁푸	-11.036
패를	-11.036
▁농협	-11.036
▁옆에서	-11.0362
▁면세점	-11.0363
▁고양이들과	-11.0364
사무소	-11.0366
▁본선	-11.037
▁국회법	-11.037
▁W	-11.037
▁규모는	-11.0371
▁보강	-11.0371
▁연락하지	-11.0371
라면서	-11.0371
▁예산안	-11.0374
하자고	-11.0376
▁시정	-11.0378
▁좋아할까	-11.0381
▁결제	-11.0383
▁많아서	-11.0384
▁회복세	-11.0385
45	-11.0387
▁왔습니다	-11.0389
▁보여주고	-11.0389
▁곽	-11.039
▁금융위	-11.0391
▁반대하는	-11.0393
▁600	-11.0394
▁수석대변인	-11.0394
스와	-11.0394
일반	-11.0394
▁모르겠네	-11.0395
▁인원	-11.0396
▁한일	-11.0398
▁부재	-11.0398
▁감안하면	-11.0402
하다고	-11.0404
▁배워	-11.0406
▁내릴	-11.0407
▁지치	-11.0408
▁축	-11.0413
위기	-11.0416
▁불편한	-11.0416
▁확보할	-11.0416
▁지적이	-11.0417
사항	-11.0418
▁열리	-11.0424
▁경상	-11.0432
▁대응할	-11.0435
▁했	-11.0436
▁이용자들	-11.0438
▁추진하고	-11.044
▁관측	-11.044
▁증가세	-11.0441
달째	-11.0447
▁간식	-11.0448
▁반발하	-11.0448
보니	-11.0451
거기	-11.0451
▁상대방이	-11.0451
▁문제의	-11.0452
▁공개하	-11.0453
▁편한	-11.0454
▁청사	-11.0454
▁과거에	-11.0462
▁은행에서	-11.0463
▁느껴	-11.0464
▁남의	-11.0467
▁이씨	-11.0472
▁좋아해서	-11.0481
▁사업은	-11.0483
▁구성원	-11.0483
▁장치	-11.0484
▁것이기	-11.0489
▁됨	-11.049
▁괜찮고	-11.0491
▁사용자	-11.0496
▁입장에서는	-11.0497
▁가려고	-11.0501
▁실점	-11.0508
▁대회에서	-11.0512
▁가난	-11.0515
▁새벽에	-11.0518
▁체제를	-11.0522
▁중학교	-11.0525
▁전세계	-11.0528
▁활약	-11.0528
공부	-11.0531
▁유기	-11.0538
▁했는지	-11.0542
KT	-11.0542
▁잘라	-11.0545
▁지루해	-11.0547
▁조지	-11.0548
▁정씨	-11.0555
▁미만	-11.056
▁조명	-11.0565
▁여자들	-11.0575
▁공간이	-11.0577
▁감독과	-11.0578
▁발전과	-11.0579
방법	-11.0582
지지	-11.0584
▁어려움	-11.0586
▁사용해	-11.0592
▁결정에	-11.0592
▁질투	-11.0593
▁다해	-11.0595
학원	-11.0601
실을	-11.061
비와	-11.0612
전국	-11.0616
▁독자적	-11.0618
▁사냥	-11.0622
▁일선	-11.0623
슬	-11.0623
▁이어가	-11.0624
▁e	-11.0629
시대	-11.0632
▁착	-11.0636
▁기록하	-11.0636
▁주권	-11.0637
▁"4	-11.0637
▁고객을	-11.065
제는	-11.0655
▁감옥에	-11.0661
대학교	-11.0663
▁자신감	-11.0667
▁된다면	-11.067
행정	-11.0672
▁얻는	-11.0674
쓰	-11.0676
안이	-11.0687
스런	-11.0688
▁들어본	-11.0689
마일을	-11.0692
▁안녕하세요	-11.0704
▁동물이	-11.0707
가장	-11.0708
▁막대	-11.0708
삼성전자	-11.0714
졌으면	-11.0714
▁도움	-11.0717
▁개성	-11.072
스마트	-11.0721
▁짜증나	-11.0722
▁43	-11.0724
▁질의	-11.0725
▁꼼꼼	-11.0732
▁사업에	-11.0733
▁기여하	-11.0742
▁성적이	-11.0744
▁미국에	-11.0746
▁후보로	-11.0748
▁조국	-11.0754
점에서	-11.0756
▁정리를	-11.0757
위의	-11.0758
▁소통을	-11.0759
▁들으	-11.076
자료	-11.076
장치	-11.0765
군에서	-11.0771
▁운행	-11.0772
짓	-11.0781
▁감염	-11.0783
▁차량을	-11.0786
▁연락하면	-11.0791
▁후폭풍	-11.0793
뉴	-11.0793
턴	-11.0795
마리를	-11.0797
▁한숨	-11.0804
▁장학금	-11.0804
시험	-11.0807
▁바꾸	-11.0808
릭	-11.0809
수는	-11.0812
자산운용	-11.0813
▁나오면	-11.0814
정신	-11.0818
컵	-11.0821
칸	-11.0821
9000	-11.0822
왔으면	-11.0823
▁남자들	-11.0823
후보	-11.0824
하기에	-11.0825
즉	-11.0827
▁청년들	-11.0829
KB	-11.083
부동산	-11.083
메르스	-11.083
직접	-11.0832
중요한	-11.0832
도서관	-11.0832
엄마	-11.0832
에너지	-11.0832
어느	-11.0833
비록	-11.0834
이었고	-11.0834
▁야외	-11.0835
인력	-11.0835
▁분류	-11.0835
대표팀	-11.0835
측은	-11.0837
협상	-11.084
당초	-11.0845
▁야당이	-11.0846
보호	-11.0852
▁하키	-11.0853
일자리	-11.0856
▁부당	-11.086
자리	-11.0861
▁접속	-11.0864
주일	-11.0865
치료	-11.0867
▁날짜	-11.0868
위에서	-11.0871
▁내일은	-11.0874
우선	-11.0878
▁채식주의	-11.088
▁표현을	-11.0881
▁살아가	-11.0887
▁빠지	-11.0889
▁실무	-11.0892
▁추정	-11.0896
독일	-11.0898
순위	-11.0901
▁불가피	-11.0904
▁학생들을	-11.0905
렬	-11.0909
▁시청	-11.0909
▁시인	-11.0911
▁살까	-11.0911
▁바라	-11.0912
보고서	-11.0915
V	-11.0916
▁안들어	-11.0917
▁안타깝	-11.0917
▁맥도날드	-11.0918
성에	-11.0931
▁종이	-11.0932
▁겪는	-11.0933
▁올랐	-11.0933
▁지낸	-11.0934
겠냐	-11.0935
개정	-11.0935
▁체육	-11.0936
▁돌입	-11.0936
▁꼬	-11.0943
▁투구	-11.0943
▁버티	-11.0943
머니	-11.0943
▁규탄	-11.0945
▁항소	-11.0946
▁벗	-11.0947
피해자	-11.0948
▁고려하면	-11.0949
l	-11.0949
대표는	-11.0949
▁박물관	-11.095
▁하느냐	-11.0951
▁특유	-11.0952
겟	-11.0953
억원에	-11.0953
▁가볍게	-11.0954
▁곁에	-11.0954
▁낫다	-11.0954
▁달걀	-11.0954
▁도저히	-11.0954
▁리트리버	-11.0954
▁아이템	-11.0954
▁옮기	-11.0954
▁평균자책점	-11.0954
룸	-11.0954
▁기쁨	-11.0954
▁동계올림픽	-11.0954
▁손해배상	-11.0954
▁케이티	-11.0954
▁손가락	-11.0954
▁이마트	-11.0954
▁제임스	-11.0954
▁일어날	-11.0954
▁솔직한	-11.0955
▁데려다	-11.0955
▁배고프	-11.0955
▁모니터링	-11.0955
▁월요일	-11.0955
▁의사결정	-11.0955
▁좌절	-11.0955
▁축복	-11.0955
▁국정운영	-11.0955
▁친척	-11.0955
▁국익	-11.0956
▁태어난	-11.0956
▁가맹점	-11.0956
▁언제쯤	-11.0956
▁돌보고	-11.0956
▁달콤하다	-11.0957
불행히도	-11.0957
▁커졌다	-11.0957
▁호응	-11.0957
▁교통사고	-11.0957
▁별다른	-11.0957
▁키울	-11.0958
▁2019	-11.0958
▁썸녀	-11.0958
▁표결	-11.0958
▁차세대	-11.0958
▁촉구한다	-11.0959
▁임대료	-11.0959
▁계속해	-11.0959
▁서울중앙지검	-11.0959
▁두려움	-11.0959
▁기재	-11.096
분쯤	-11.096
▁인내	-11.0961
▁조각	-11.0961
▁형성	-11.0962
▁단호	-11.0963
▁철강	-11.0964
▁해킹	-11.0964
▁지나갈	-11.0964
▁단위	-11.0965
▁던졌다	-11.0965
▁검토해	-11.0965
▁종로구	-11.0965
▁쏘	-11.0966
▁화려	-11.0966
▁마실	-11.0967
▁재발	-11.0968
▁워싱턴	-11.0968
▁호날두	-11.0968
▁드라이브	-11.0968
▁박차	-11.0969
▁비행	-11.097
▁간호사야	-11.0971
▁잃었다	-11.0972
▁건축	-11.0972
▁철회	-11.0972
년동안	-11.0973
▁납득할	-11.0973
▁식료품점에서	-11.0974
▁쉬면서	-11.0974
▁부인했다	-11.0974
▁구름	-11.0974
▁안타깝다	-11.0974
▁보유하고	-11.0974
▁개통	-11.0975
▁야간	-11.0975
▁민주노총	-11.0977
▁명품	-11.0977
▁격차	-11.0978
▁포부를	-11.0979
▁레이야	-11.098
▁채팅할	-11.098
▁어찌	-11.098
▁국가의	-11.098
▁연설	-11.0981
▁서구	-11.0982
▁조사됐다	-11.0982
▁대목	-11.0983
▁나간	-11.0984
▁당신에게	-11.0984
▁맞았다	-11.0984
▁앱	-11.0986
▁해결하기	-11.0986
▁거대한	-11.0986
▁경영진	-11.0987
대구	-11.0987
▁상관없	-11.0987
▁저성장	-11.0988
▁누구에게	-11.0989
▁출신이야	-11.099
▁소신	-11.0991
▁중요하지만	-11.0992
▁행진	-11.0992
▁보자	-11.0993
▁인사말	-11.0993
▁보험금	-11.0994
▁농산물	-11.0994
▁소상공인	-11.0995
▁패턴	-11.0995
▁자신들의	-11.0995
▁만나자고	-11.0997
▁야외에서	-11.0997
▁가공	-11.0997
▁경찰청	-11.0998
▁팬이다	-11.0998
▁지표	-11.0999
▁정상적인	-11.1
▁피의자	-11.1001
▁구체적	-11.1001
▁성명서	-11.1002
▁잭	-11.1002
▁통하는	-11.1003
▁보복	-11.1003
▁틈	-11.1003
▁의원들	-11.1003
▁향수	-11.1004
▁양심	-11.1004
▁않니	-11.1004
▁연락처	-11.1005
▁한미동맹	-11.1006
▁지침	-11.1008
▁입원	-11.1009
▁분쟁	-11.101
▁유용	-11.101
▁만났다	-11.1012
▁위대한	-11.1015
▁상실	-11.1016
부장	-11.1016
▁복구	-11.1017
▁증세	-11.102
▁조만간	-11.1021
▁여지가	-11.1024
▁급식	-11.1024
▁일어나서	-11.1024
▁현역	-11.1025
▁충분해	-11.1025
▁사랑하지	-11.1027
▁뭐하지	-11.1027
다보면	-11.1028
▁지내세요	-11.1028
▁거듭나	-11.1029
▁달성할	-11.103
▁감자튀김을	-11.1031
해서는	-11.1031
▁이론	-11.1032
▁편할	-11.1032
▁돌아왔고	-11.1033
▁선전	-11.1034
▁장식	-11.1034
▁자리매김	-11.1035
서비스를	-11.1037
▁46	-11.1037
교사	-11.1038
▁법관	-11.104
다보니	-11.1041
▁당론	-11.1041
적절치	-11.1042
▁기대감을	-11.1042
▁맡아	-11.1044
▁사랑해서	-11.1045
▁갖추	-11.1046
▁시원하	-11.1047
환경을	-11.1047
▁선수들에게	-11.1048
▁박지원	-11.1049
▁편집	-11.1049
▁기량	-11.1051
▁선박	-11.1054
▁프리	-11.1054
▁괜찮아질	-11.1055
▁돕고	-11.1055
▁장기적으로	-11.1056
연패	-11.1056
▁박람회	-11.1057
▁강화해	-11.1059
▁동력	-11.1059
▁아들과	-11.1059
▁국회의장	-11.106
▁행복할	-11.1062
▁수백	-11.1062
▁공기업	-11.1063
▁찾아보	-11.1064
▁식품	-11.1067
▁새끼	-11.1067
▁중에서	-11.1067
▁위원장이	-11.1069
▁성공할	-11.1071
▁그리스	-11.1073
▁정신이	-11.1073
▁울어	-11.1073
▁푸는	-11.1074
▁것들이	-11.1078
▁엄마야	-11.1078
▁알면	-11.1079
▁가자고	-11.108
▁V	-11.1081
▁최경	-11.1084
두고	-11.1085
▁건데	-11.1086
▁재고	-11.1091
▁가는데	-11.1091
▁손님	-11.1095
▁이뤄	-11.1097
▁나누고	-11.1098
▁듣지	-11.1099
없	-11.11
▁탄생	-11.1101
▁대표에게	-11.1101
▁제기된	-11.1101
▁명단에	-11.1102
▁공직자	-11.1108
▁기업인	-11.1108
자고	-11.111
▁만들었	-11.1111
▁사냥을	-11.1113
의원은	-11.1114
▁시작하는	-11.1115
▁부모님과	-11.1115
▁추경	-11.1117
하겠네	-11.1118
하였습니다	-11.1118
▁사용한다	-11.1118
봐야	-11.112
시장이	-11.1123
▁홀	-11.1123
▁살려	-11.1123
공단	-11.1127
▁중점을	-11.1128
▁테니스를	-11.1131
▁유가	-11.1133
▁문제점을	-11.1135
▁진행해	-11.1135
▁행복을	-11.1139
▁협력해	-11.114
▁공세	-11.1143
▁대단하지	-11.1148
분이	-11.1149
▁안심	-11.1151
나가	-11.1152
대비	-11.1152
▁기억이	-11.1155
▁광장	-11.1156
배를	-11.1157
▁지우	-11.1158
▁주장한	-11.116
▁운영한다	-11.1162
▁대학원	-11.1167
썸남한테	-11.1167
▁부리	-11.1167
시면	-11.1168
부산	-11.1175
문제	-11.1178
▁동료가	-11.1178
▁세상이	-11.1181
▁화제	-11.1186
▁전체회의	-11.1187
▁확인하는	-11.1188
▁겨울에	-11.1189
0	-11.1193
▁방문한	-11.1195
▁전기가	-11.1197
득	-11.1197
▁만드	-11.1207
▁주주	-11.1208
▁했으나	-11.1209
▁유도	-11.1213
스럽다	-11.1221
▁움직임이	-11.1222
26	-11.1223
▁근무를	-11.1224
▁흘러	-11.1227
▁아버지의	-11.123
▁밴드에	-11.1234
▁재밌는	-11.1234
▁예고	-11.1237
이씨는	-11.1244
▁권한을	-11.1245
▁현장에	-11.1248
▁살인	-11.1253
▁달라질	-11.1253
▁침	-11.1254
▁개들은	-11.1259
지른	-11.1267
F	-11.1268
▁거미	-11.1269
가요	-11.1269
장관	-11.127
▁대선에서	-11.1274
문학	-11.1274
▁택	-11.1275
▁피곤하	-11.1276
위원회의	-11.1277
▁출신의	-11.1286
▁채팅	-11.1286
▁드릴	-11.1289
▁법정	-11.1292
▁아니었	-11.1297
▁답변을	-11.13
▁챙기	-11.1305
▁확보에	-11.1308
▁효과적	-11.131
▁케	-11.131
▁높고	-11.1314
▁고려대	-11.1315
율을	-11.1316
▁형제	-11.1321
▁많고	-11.1325
▁노동자들	-11.1326
모씨는	-11.1328
▁조카	-11.1328
▁유인	-11.1329
▁필요하	-11.1332
▁해제	-11.1334
시다	-11.1334
▁발표한	-11.1338
계의	-11.1344
▁청주	-11.1344
▁밝히	-11.1345
▁흐름이	-11.1346
▁매매	-11.135
▁북한과	-11.1351
방향	-11.1356
▁선보	-11.1357
받아	-11.1365
센터에서	-11.1368
까지는	-11.1376
▁빠르	-11.1396
마일	-11.1399
▁않네	-11.14
▁자극	-11.1403
▁경기장	-11.1404
▁존재하는	-11.141
▁생각한	-11.1411
▁술집	-11.1421
▁선택일	-11.1428
퇴	-11.143
▁달러에	-11.1438
군이	-11.1438
▁추억이	-11.144
▁약화	-11.1445
▁춤	-11.1445
▁한창	-11.1447
국에	-11.1448
영업	-11.1449
정해진	-11.1455
기록	-11.1456
▁여름에	-11.1464
▁대한항공	-11.147
▁김기	-11.147
▁살펴보	-11.147
타를	-11.1472
▁나타내	-11.1475
▁보인	-11.1477
전이	-11.1478
했어요	-11.1485
▁사회에서	-11.1488
눈	-11.1492
▁게임에	-11.1493
▁상당의	-11.1495
▁물어본	-11.1503
움	-11.1504
▁증	-11.1509
▁폐쇄	-11.1514
▁기르	-11.1515
간담회에서	-11.1515
▁경찰의	-11.152
자리에	-11.1522
▁가져가	-11.1524
▁경력	-11.1528
▁권고	-11.153
▁고등학교에	-11.1533
컴	-11.1535
하나은행	-11.154
연맹	-11.154
▁건전성	-11.1541
빛	-11.1541
곽	-11.1541
공무원	-11.1541
딜	-11.1542
인수	-11.1542
쓸	-11.1543
▁신속하	-11.1544
안철수	-11.1544
인터넷	-11.1544
2002	-11.1544
나쁘지	-11.1545
위험	-11.1545
▁답이	-11.1546
▁되겠네	-11.1547
특정	-11.1548
2012	-11.1548
공정	-11.1549
개월이	-11.155
중인	-11.1552
▁영혼	-11.1553
▁방송을	-11.1554
사이	-11.1554
강남	-11.1555
모두	-11.1555
▁생존	-11.1557
▁현실이	-11.1558
연구원은	-11.1559
▁머	-11.1562
평화	-11.1564
▁육군	-11.1566
득점	-11.1568
▁주자	-11.1569
▁구도	-11.1569
▁펼쳐	-11.1577
▁테이블	-11.1578
지내고	-11.158
선발	-11.158
식품	-11.1586
▁확	-11.1587
으니까	-11.1587
▁현상이	-11.1589
▁일치	-11.1589
▁착수	-11.1591
타임	-11.1591
그들은	-11.1591
▁스타트업	-11.1593
▁T	-11.1594
▁알레르기	-11.1595
하였다	-11.1599
▁협상이	-11.1602
▁타이밍	-11.1603
▁냉	-11.1605
▁지나가	-11.1607
타점	-11.161
▁잘못이	-11.161
통일	-11.1611
▁확신	-11.1613
▁입양	-11.1619
▁준비한	-11.1622
▁청산	-11.1624
▁태양	-11.1626
국장	-11.1629
▁창의적	-11.163
린다	-11.1633
▁위법	-11.1633
남북	-11.1636
냥	-11.1636
▁몸에	-11.1638
▁기대에	-11.1638
▁45	-11.1641
▁늘어난	-11.1641
▁밝혔	-11.1644
▁부활	-11.1644
▁입국	-11.1644
▁싸우는	-11.1646
됐으며	-11.1647
▁디자이너	-11.1648
▁줄여	-11.1651
▁사라진	-11.1652
중심	-11.1652
했으니	-11.1653
▁화창	-11.1656
나의	-11.1656
짜리	-11.1657
드리겠다	-11.1657
▁승객	-11.1658
▁여론조사	-11.1661
▁흑자	-11.1663
▁추천해	-11.1664
▁고가	-11.1666
그때	-11.1666
▁끄는	-11.1669
▁늙은	-11.1669
▁괜히	-11.1669
▁귀띔했다	-11.1669
▁비타민	-11.1669
▁옳은	-11.1669
▁왼쪽	-11.1669
▁원내수석부대표	-11.1669
▁이구아나	-11.1669
▁이끄는	-11.1669
▁춥다	-11.1669
멜	-11.1669
홀딩스	-11.1669
▁의정활동	-11.1669
▁핑계	-11.1669
▁다이빙	-11.1669
▁tv	-11.1669
▁이메일	-11.1669
▁마라톤	-11.1669
깡충	-11.1669
▁""2015	-11.1669
▁데려가	-11.1669
▁독특	-11.1669
▁풀이된다	-11.1669
▁불공정	-11.167
▁동반	-11.167
▁지닌	-11.167
▁북쪽	-11.167
▁열악	-11.167
▁않겠느냐	-11.167
▁추정된다	-11.167
▁든든	-11.1671
▁국채	-11.1671
▁소폭	-11.1671
▁의결	-11.1671
개월만에	-11.1671
▁즐거움	-11.1671
▁얼음	-11.1673
▁헷갈리게	-11.1673
▁레드	-11.1673
▁대립	-11.1674
▁하루였어	-11.1674
▁징수	-11.1674
▁결혼을	-11.1674
▁뉴	-11.1675
▁지켜봐야	-11.1675
▁필요하죠	-11.1676
▁배울	-11.1676
▁발급	-11.1676
▁40%	-11.1676
▁차지했다	-11.1676
▁괴롭	-11.1676
▁일몰	-11.1677
▁국립	-11.1677
▁있구나	-11.1677
▁끝날	-11.1677
▁찾아올	-11.1677
▁확률	-11.1678
▁솔직하게	-11.1678
▁라인업	-11.1679
시장을	-11.1679
렬한	-11.168
▁멍	-11.168
▁메리야	-11.1681
▁저한테	-11.1681
▁노래방	-11.1681
살짜리	-11.1682
▁있었는지	-11.1683
▁귀여	-11.1683
▁아르바이트를	-11.1683
▁핫	-11.1683
▁업그레이드	-11.1683
▁겨냥	-11.1683
▁떨어졌다	-11.1684
▁거취	-11.1684
▁대북제재	-11.1684
▁쿨	-11.1684
▁맛있겠다	-11.1684
▁신중하게	-11.1684
▁지속될	-11.1685
▁인류	-11.1686
▁임시국회	-11.1688
▁파스타를	-11.1688
▁100%	-11.1688
▁기울이	-11.169
▁할텐데	-11.169
▁상인들	-11.169
▁되죠	-11.169
▁중순	-11.1691
▁생기는	-11.1691
▁낡	-11.1693
▁오프라인	-11.1693
▁호흡	-11.1693
▁하나라도	-11.1694
▁납부	-11.1695
▁소문이	-11.1695
▁현실적으로	-11.1695
억달러	-11.1696
▁김치	-11.1696
▁입니다	-11.1696
▁이해하기	-11.1697
▁교역	-11.1698
▁털	-11.1698
▁축하한다	-11.1698
▁로비	-11.1698
▁최신	-11.1698
▁공판	-11.1699
▁지속가능	-11.1699
▁빠르다	-11.1701
▁걸었다	-11.1701
▁인선	-11.1702
▁팀을	-11.1703
▁강정호	-11.1703
▁임무	-11.1704
▁단절	-11.1704
▁월세	-11.1704
▁쟁점	-11.1705
회의를	-11.1705
▁감사하다	-11.1706
▁포수	-11.1706
▁공동대표	-11.1706
▁콜	-11.1707
▁이탈	-11.1707
▁주차	-11.1707
▁공격수	-11.1708
▁맥도날드에서	-11.1708
▁고정	-11.1709
▁기업으로	-11.1709
▁체육관에	-11.1709
▁애정	-11.171
▁우정	-11.171
운전	-11.171
▁사랑하는데	-11.171
▁통산	-11.1711
▁보는거야	-11.1712
▁전당대회	-11.1712
▁간부들	-11.1712
▁메시	-11.1712
▁실시할	-11.1715
▁써야	-11.1716
▁전락	-11.1718
▁헌재	-11.1718
개월간	-11.1719
▁예상치	-11.172
▁울리	-11.1721
대통령의	-11.1721
▁시가총액	-11.1721
이었는데	-11.1722
▁줄이	-11.1724
전력	-11.1724
원에서	-11.1725
▁선생님이다	-11.1725
▁활기	-11.1725
▁용인	-11.1728
▁모으고	-11.1729
▁각국	-11.173
▁기간에	-11.1731
▁소형	-11.1732
▁많지만	-11.1733
▁말하기도	-11.1733
▁시원하다	-11.1733
▁상시	-11.1734
▁김현수	-11.1734
▁처음에	-11.1735
▁마주	-11.1735
▁후회할	-11.1736
▁가족들과	-11.1736
▁원유	-11.1737
▁양보	-11.1737
▁박수	-11.1738
▁추가적인	-11.1739
▁나갔다	-11.174
▁요리하고	-11.1744
▁퇴근	-11.1745
세금	-11.1745
▁양산	-11.1745
▁주석	-11.1746
▁정국	-11.1753
▁없음	-11.1756
▁추락	-11.1757
▁FC	-11.1757
▁것만으로	-11.1758
▁알지만	-11.1758
왔어	-11.1759
▁기업들의	-11.1759
▁거부하고	-11.1762
▁병행	-11.1765
▁요리사	-11.1765
▁임시	-11.1766
▁투기	-11.1766
▁이해하고	-11.1766
▁타율	-11.1767
▁토론회	-11.177
▁확보해	-11.177
식으로	-11.177
▁향하	-11.177
루타	-11.1772
▁붙잡고	-11.1773
▁4000	-11.1773
▁서핑을	-11.1773
▁제거	-11.1774
▁교육감	-11.1774
원의	-11.1774
▁자유롭	-11.1777
▁고민하는	-11.1778
▁남자들은	-11.1778
▁분담	-11.1779
▁낮게	-11.1779
▁반전	-11.1782
▁중소	-11.1783
▁거리가	-11.1785
▁진행했다	-11.1785
▁위원은	-11.1785
▁원점	-11.1787
▁위로해	-11.1787
▁보여주	-11.1789
▁직원이	-11.179
제한	-11.1794
▁남았다	-11.1797
▁꾸려	-11.1797
▁일요일에	-11.1798
▁참가자	-11.1798
▁결혼한	-11.1801
▁군수	-11.1803
되어야	-11.1805
▁아파트에서	-11.1807
▁자세로	-11.1812
▁극장	-11.1812
▁텍사스	-11.1812
▁될까요	-11.1812
▁상태로	-11.1815
▁가상	-11.1815
▁하기도	-11.1815
▁아는데	-11.1817
▁자정	-11.182
왔는데	-11.182
▁조금이나	-11.1823
▁승	-11.1825
▁일대	-11.1827
▁형태의	-11.183
▁열차	-11.1832
▁달하는	-11.1836
▁국민은	-11.1837
▁흥	-11.1837
▁잡기	-11.1839
▁-	-11.184
▁생산성	-11.1843
▁이상형	-11.1845
▁도주	-11.1845
▁사라	-11.1845
▁피우	-11.1846
▁지금처럼	-11.1848
▁영향은	-11.185
▁의원들은	-11.1851
▁층	-11.1852
▁않으니까	-11.1858
▁자체로	-11.1858
▁상처가	-11.1859
질서	-11.1864
국민이	-11.1869
왔	-11.187
▁부담스러워	-11.187
▁마련이	-11.1871
▁나아	-11.1871
▁걸리	-11.1872
▁부서	-11.1874
▁충격을	-11.1875
추가	-11.1876
▁성과가	-11.1877
▁비행기를	-11.1877
▁모색	-11.1883
▁날이다	-11.1883
▁t	-11.1884
▁매력	-11.1885
▁주제로	-11.1885
▁항의	-11.1886
▁이해하지	-11.1891
▁느끼고	-11.1893
▁지원하기	-11.1898
▁당황	-11.1903
객	-11.1906
▁경비	-11.1912
▁전산	-11.1919
대형	-11.192
널리	-11.192
▁전술	-11.192
▁짓는	-11.1922
▁기여한	-11.1923
▁자금이	-11.1925
시민	-11.1925
▁재미가	-11.1927
▁반영해	-11.193
야죠	-11.194
▁투자가	-11.1945
▁매물	-11.1948
▁다하고	-11.1949
▁몰려	-11.1952
▁적용해	-11.1953
▁부르는	-11.1956
▁회사와	-11.1957
▁확대할	-11.1958
움을	-11.196
▁플레이오프	-11.1964
년여	-11.1966
▁일으키	-11.1969
중국의	-11.1982
▁도시에	-11.1982
▁말이다	-11.1988
▁헤어	-11.1989
▁김경	-11.199
▁익	-11.1999
▁발전시키	-11.2005
▁도리	-11.2005
▁지구	-11.2008
▁출석해	-11.2012
▁여행가	-11.2012
▁고의	-11.2013
600	-11.2015
▁혼자가	-11.2016
▁꿈에서	-11.202
경기에	-11.2025
▁만났	-11.2026
▁영어를	-11.2027
▁""10	-11.2028
▁주거	-11.2029
그러	-11.2029
동의	-11.2029
▁꿈은	-11.2031
▁매수	-11.2033
▁증권	-11.2033
▁장기적	-11.2038
▁기구	-11.2045
▁나이는	-11.2045
▁말과	-11.2047
▁갈지	-11.2049
▁사이가	-11.205
관계를	-11.2055
▁필요하겠	-11.2056
▁엔	-11.2065
▁여자는	-11.2068
▁대책이	-11.2072
▁어서	-11.2073
법에	-11.2074
▁여름이	-11.2077
▁방문을	-11.2078
▁고르	-11.2085
▁요구하	-11.2086
▁강의	-11.2095
업을	-11.2098
▁경북	-11.2104
▁발전에	-11.2113
문제를	-11.2114
▁하려는	-11.2118
▁다음에	-11.2118
▁빌어	-11.2121
▁연주하	-11.2121
▁고지	-11.2124
혔다	-11.2127
▁절차에	-11.2128
▁보아	-11.2131
▁연수	-11.2139
최순실	-11.2143
▁문서	-11.2146
▁지루하	-11.2146
▁마리를	-11.2148
▁생각나네	-11.2151
▁명을	-11.2152
▁제출한	-11.216
▁피고인	-11.216
▁간편	-11.2162
▁하반기에	-11.2162
정도	-11.2167
▁상처받	-11.2168
사회적	-11.2171
▁제한적	-11.2176
▁했다는	-11.2179
▁도전해	-11.218
▁모르겠	-11.2182
▁일부를	-11.2184
▁전화가	-11.2186
사업에	-11.2187
▁돈은	-11.2188
년만	-11.2189
스럽게	-11.2195
본부는	-11.2199
▁많았	-11.22
분을	-11.2205
▁반지	-11.221
▁안하는	-11.2211
▁붙잡	-11.2212
▁상향	-11.2214
▁알려주	-11.2217
▁실력	-11.2223
생각	-11.2227
▁환경에서	-11.2229
▁전용	-11.223
▁놀러	-11.223
▁정원을	-11.2232
▁다운	-11.2236
작년	-11.2237
▁촉구	-11.2238
▁여지	-11.2242
▁37	-11.2243
▁사인	-11.2245
▁지나갔	-11.2248
제도를	-11.2249
회의에서	-11.2253
회관	-11.226
▁그리워하	-11.226
경찰서	-11.2262
▁주최	-11.2268
홀	-11.2269
▁기울여	-11.2274
접	-11.2274
▁다음달	-11.2276
▁당첨	-11.228
▁텔레비전	-11.228
▁그런지	-11.2281
류중	-11.2281
▁나이에	-11.2282
끈	-11.2289
울산	-11.229
시기	-11.2292
젠	-11.2292
▁살아야	-11.2292
그것	-11.2292
▁흔들리	-11.2298
▁진술을	-11.2299
쿠	-11.23
생산	-11.2302
▁집안일	-11.2302
푸	-11.2303
묘	-11.2304
▁협회	-11.2306
특검	-11.2307
마켓	-11.2307
체험	-11.2308
ᅲ	-11.2309
▁편성	-11.2311
법무부	-11.2312
탄핵	-11.2314
점검	-11.2314
실에	-11.2314
물론이지	-11.2315
▁공개한	-11.2315
한반도	-11.2316
그러자	-11.2316
교류	-11.2318
희망	-11.2318
교육청	-11.2319
창업	-11.232
▁각오	-11.2324
불법	-11.2326
평소	-11.2326
을지도	-11.2328
공동	-11.2329
였고	-11.2331
28	-11.2335
▁댓글	-11.2336
▁현황	-11.2337
선물	-11.2338
▁지내는	-11.2338
▁소중	-11.2341
내고	-11.2343
▁선물은	-11.2343
▁중점	-11.2344
▁바람을	-11.2344
▁자율	-11.2346
양국	-11.2348
케이	-11.235
▁투자자들이	-11.2351
세트	-11.2353
작전	-11.2355
▁저지	-11.2356
▁확인한	-11.2359
텔레콤	-11.236
▁국무총리	-11.2361
29	-11.2363
역사	-11.2365
▁놓아	-11.2365
▁내외	-11.2366
▁가요	-11.2368
▁확산되	-11.237
백을	-11.2371
됩니다	-11.2371
량을	-11.2371
▁이럴	-11.2371
명과	-11.2374
▁일관	-11.2374
▁어젯밤	-11.2376
▁태풍	-11.2379
등을	-11.238
하긴	-11.2387
시군요	-11.2389
▁사랑해주	-11.2389
▁외치	-11.239
▁선보인	-11.2392
▁마크	-11.2394
수익	-11.2394
▁줄어든	-11.2398
▁말해주	-11.24
▁타협	-11.2407
▁병원으로	-11.2409
▁중립	-11.2415
▁웃는	-11.2415
▁느낀	-11.2416
▁한달이	-11.2416
▁기쁘	-11.242
상황을	-11.2421
▁무효	-11.2421
▁어떻	-11.2421
장도	-11.2422
▁경호	-11.2422
조건	-11.2424
▁개척	-11.2425
▁펼치	-11.2427
▁좁	-11.2427
▁횡령	-11.2428
빙	-11.2428
▁달리고	-11.243
▁지쳐	-11.243
▁납품	-11.243
▁촛불	-11.2431
▁구청	-11.2433
▁싸워	-11.2433
▁메모	-11.2433
개사	-11.2434
조합	-11.2435
▁계절이	-11.2436
▁사랑한다고	-11.2436
▁근육	-11.2437
▁연상	-11.2437
첩	-11.2437
▁갖췄다	-11.2438
▁광화문	-11.2438
▁꿨어	-11.2438
▁냠냠	-11.2438
▁로맨스	-11.2438
▁알았어	-11.2438
▁옳다	-11.2438
▁웃기	-11.2438
▁이겨낼	-11.2438
▁이르렀다	-11.2438
▁일괄	-11.2438
▁짧게	-11.2438
▁펼칠	-11.2438
▁힘입어	-11.2438
▁샀다	-11.2438
▁털어놨다	-11.2438
넷마블	-11.2438
▁외로워	-11.2438
▁지겨워	-11.2438
▁팝콘	-11.2438
▁발가락	-11.2438
▁안됐군	-11.2438
▁쿠폰	-11.2438
쿼터	-11.2438
▁로스쿨	-11.2438
▁소식통은	-11.2438
▁열쇠	-11.2438
▁레알	-11.2439
▁운항	-11.2439
▁성립	-11.2439
▁열람	-11.2439
▁탄탄	-11.2439
▁개막	-11.2439
▁불이익	-11.2439
▁바람직하다	-11.2439
▁창조경제	-11.244
피안타	-11.244
▁연관	-11.244
▁검정	-11.244
▁계층	-11.244
▁도시락	-11.244
▁어렵지	-11.2441
▁애완	-11.2441
▁체류	-11.2441
▁65	-11.2441
▁여자애한테	-11.2441
▁금융기관	-11.2441
▁재편	-11.2442
▁늘릴	-11.2442
▁퇴	-11.2442
▁피곤하지만	-11.2443
▁아플	-11.2443
▁시범	-11.2443
▁이뤄져야	-11.2444
▁의미있는	-11.2444
▁트렌드	-11.2444
▁발견됐다	-11.2444
▁은근	-11.2444
▁문의하면	-11.2444
▁파란	-11.2444
▁분명하다	-11.2444
▁재밌어	-11.2445
▁50%	-11.2445
▁부른다	-11.2445
▁그립다	-11.2446
▁짝녀랑	-11.2446
▁모래	-11.2447
▁유감이다	-11.2447
▁저장	-11.2447
▁먹었니	-11.2447
▁먹을까	-11.2448
▁수준에	-11.2448
소리	-11.2448
▁감사합니다	-11.2448
▁잘지냈	-11.2449
▁높았다	-11.245
▁살펴보면	-11.245
▁찾았다	-11.245
▁도내	-11.245
▁결혼했어	-11.2451
▁마련됐다	-11.2451
▁살피	-11.2451
▁책무	-11.2452
▁출제	-11.2452
▁물론이고	-11.2452
▁별거	-11.2452
▁비교하면	-11.2453
▁지역경제	-11.2453
▁있겠죠	-11.2453
▁웹	-11.2453
테크	-11.2454
▁넥슨	-11.2454
▁kt	-11.2454
▁어리석	-11.2454
▁흥미로운	-11.2454
▁계획이라도	-11.2454
▁보스턴	-11.2454
▁뚜렷한	-11.2455
09	-11.2455
▁불안정	-11.2455
▁생각했는데	-11.2455
▁메모리	-11.2455
▁성장세가	-11.2456
▁입었다	-11.2456
▁선언했다	-11.2456
▁권태기	-11.2456
▁시작됐다	-11.2457
▁고유	-11.2457
▁기온	-11.2458
▁걱정돼	-11.2458
▁시급한	-11.2459
0%	-11.2459
▁꼬리	-11.2459
▁편안한	-11.246
▁모르게	-11.246
▁담보	-11.246
▁발견된	-11.2461
▁이견	-11.2461
▁있거나	-11.2461
▁번호	-11.2462
▁악용	-11.2463
▁공유하	-11.2464
겠지요	-11.2464
▁매력적인	-11.2464
▁이코노미스트	-11.2464
▁깨끗한	-11.2464
▁자식	-11.2464
▁사죄	-11.2465
▁남북관계	-11.2465
▁우호	-11.2465
▁이른바	-11.2465
▁손상	-11.2466
▁참석했다	-11.2466
▁쉽다	-11.2466
▁멋있	-11.2466
▁연세대	-11.2467
▁지배	-11.2469
▁진전	-11.247
▁내다보	-11.247
▁구성된	-11.2471
▁조항	-11.2471
▁나름	-11.2471
▁이해한다	-11.2471
▁환영	-11.2472
▁끝나면	-11.2473
▁현행	-11.2474
▁장미	-11.2474
▁꿀	-11.2474
▁솔루션	-11.2475
▁냉장고	-11.2475
▁여파	-11.2477
▁불편함	-11.2477
▁바이오	-11.2477
▁페리	-11.2478
BS	-11.2478
▁소속팀	-11.248
▁차장은	-11.2481
▁벌어진	-11.2481
▁방역	-11.2481
▁비대위원장	-11.2482
사인	-11.2483
▁깔	-11.2484
▁휴대전화	-11.2485
▁마련해야	-11.2485
지기	-11.2486
▁효율성	-11.2489
▁거울	-11.249
▁공동체	-11.249
▁증대	-11.249
▁타는데	-11.2491
▁증인으로	-11.2492
▁중반	-11.2492
▁식량	-11.2493
▁뜻이다	-11.2493
▁노동당	-11.2494
▁들어선	-11.2494
▁국토부	-11.2495
▁연준	-11.2495
▁달한다	-11.2496
▁승점	-11.2496
▁인식하고	-11.2497
기업의	-11.2497
▁방문한다	-11.2498
▁해양	-11.2499
해경	-11.25
▁의미한다	-11.25
▁뭐라도	-11.25
▁적합한	-11.2501
▁플로리다에서	-11.2502
▁고시	-11.2505
▁반등	-11.2505
▁점검하고	-11.2505
▁안정성	-11.2508
거같아	-11.2508
▁여자친구에게	-11.2508
▁아쉬움을	-11.2509
▁스파게티를	-11.2509
▁말이에요	-11.2511
▁바닥	-11.2514
▁Q	-11.2515
▁느껴지	-11.2515
여건	-11.2516
▁상승했다	-11.2517
▁생각하며	-11.2518
▁볼넷	-11.2518
▁변동성	-11.2518
▁다짐	-11.252
▁운전사	-11.2522
의견	-11.2522
▁굴	-11.2522
▁있겠	-11.2523
▁스스로에게	-11.2523
▁동행	-11.2524
▁항	-11.2524
▁이상하다	-11.2525
▁시작했고	-11.2526
▁남쪽	-11.2526
▁금융당국	-11.2529
▁벨	-11.2529
▁일어났다	-11.2529
양을	-11.2532
▁세계적으로	-11.2532
▁자신만	-11.2532
▁일제	-11.2533
▁J	-11.2534
실로	-11.2534
▁재즈를	-11.2536
▁도착	-11.2536
▁꾸며	-11.2537
재원	-11.2537
▁활발	-11.2541
▁일하면서	-11.2542
▁욕심	-11.2542
▁묘	-11.2543
▁기재부	-11.2544
▁통장	-11.2552
▁속도가	-11.2553
▁입점	-11.2555
▁금융시장	-11.2556
▁당신도	-11.2559
▁포기하는	-11.2559
▁달려가	-11.256
▁하키를	-11.256
▁수혜	-11.2562
중에	-11.2562
비는	-11.2564
좋아요	-11.2565
▁후배	-11.2566
거지	-11.2566
▁먹어야	-11.2568
▁아니니	-11.2571
▁줘서	-11.2573
▁정리할	-11.2574
▁총선에서	-11.2575
▁전달한	-11.2575
▁여사	-11.2576
▁김진	-11.2577
뱅크	-11.2577
▁바꾸고	-11.2579
▁남자야	-11.2579
▁운동하고	-11.2582
▁점이다	-11.2582
▁기금	-11.2585
▁변명	-11.2585
▁가겠다	-11.2586
▁달린	-11.2588
부와	-11.2592
▁해보고	-11.2594
이었어	-11.2594
▁취지로	-11.2598
▁주소	-11.2601
▁이어가고	-11.2602
▁파리	-11.2604
▁등이다	-11.2604
▁성인	-11.2606
▁기차	-11.2606
▁들리네	-11.2607
38	-11.2607
▁건너	-11.2609
셨	-11.2609
▁매력을	-11.261
▁사업비	-11.2613
▁국세청	-11.2619
▁사실이다	-11.2623
▁후보에게	-11.2624
말고	-11.2625
▁서부	-11.2627
▁뭐해	-11.2631
▁데에	-11.2636
▁놀러가	-11.2636
▁노리	-11.2638
▁정면	-11.2643
▁절대로	-11.2643
▁이야기하는	-11.2644
▁전문가들은	-11.2645
▁안산	-11.2647
개교	-11.2649
▁균형을	-11.2651
물질	-11.2655
구는	-11.2656
▁가계	-11.266
▁중간에	-11.2662
▁주신	-11.2662
다리	-11.2663
▁먹기	-11.2665
왔습니다	-11.267
▁야채를	-11.267
식이	-11.2672
▁s	-11.2674
▁마주치	-11.2675
▁작업이	-11.2676
▁얼	-11.2676
관이	-11.2678
▁순서	-11.2679
▁평가전	-11.2679
▁질서	-11.268
▁증거가	-11.2683
▁약세	-11.2685
▁절약	-11.2685
▁처분을	-11.2689
▁시카고	-11.269
▁은행이	-11.2691
고용	-11.2699
들로	-11.27
▁사탕을	-11.2701
▁아동	-11.2702
▁자사	-11.2703
▁중국에서	-11.2707
▁싶다면	-11.271
▁삶이	-11.2713
▁성원	-11.2723
포를	-11.2724
▁기다리	-11.2727
▁고백하는	-11.2728
▁줘야	-11.273
안정	-11.273
▁최상	-11.2734
▁사례가	-11.2734
▁누구를	-11.2735
en	-11.2735
▁내려가	-11.2735
▁차에	-11.2737
▁생각나는	-11.274
▁서해	-11.274
▁쳐	-11.2745
하다는	-11.2748
▁겨	-11.2752
분에	-11.276
▁게시	-11.2762
▁모순	-11.2763
▁불행	-11.2763
▁정도다	-11.2765
▁울고	-11.2774
담당	-11.2779
▁거지	-11.2781
▁연구원	-11.2785
만명이	-11.279
▁신원	-11.2792
▁움직임	-11.2794
▁복합	-11.2802
▁난다	-11.2805
▁수사가	-11.281
▁한강	-11.2812
▁해야지	-11.2812
▁비만	-11.2813
었고	-11.2815
▁공정성	-11.2817
▁해결해야	-11.2817
기기	-11.2819
부를	-11.282
우리의	-11.2828
▁소리가	-11.2829
▁찾아가는	-11.2834
년차	-11.2835
▁라이	-11.2839
하되	-11.284
▁회장과	-11.2841
▁땅을	-11.2845
이같은	-11.285
▁학과	-11.2853
▁플로리다에	-11.2858
렉	-11.2861
▁보존	-11.2862
▁논란을	-11.2867
▁만남이	-11.287
▁표현하는	-11.287
단계로	-11.2871
주면	-11.2872
▁집계	-11.2876
▁감정에	-11.2883
는거	-11.2883
▁나라가	-11.2884
▁지원에	-11.2884
위해	-11.2887
▁사표	-11.2893
▁힐	-11.2901
▁기상	-11.2901
이제는	-11.2903
정치적	-11.2906
▁희망이	-11.291
▁전한다	-11.2911
▁발효	-11.2913
▁부작용	-11.2921
춘	-11.2922
▁차는	-11.2925
년도	-11.2925
▁불안해	-11.2926
▁적도	-11.2926
▁믿지	-11.2928
▁자진	-11.2932
미가	-11.2938
▁풀려	-11.2943
▁그렇다고	-11.2948
▁맛을	-11.295
▁상자	-11.2953
▁어린이들	-11.2958
▁외면	-11.2959
▁기지	-11.296
드를	-11.2961
▁일로	-11.2962
업종	-11.2962
▁내각	-11.2964
▁광대	-11.2964
▁관리에	-11.2965
제주	-11.2967
지네	-11.297
▁전자	-11.2972
▁것인데	-11.2975
▁해명	-11.2977
▁대장	-11.2977
저기	-11.2983
▁해가	-11.299
스가	-11.299
an	-11.2991
▁총회	-11.2992
▁마시	-11.2998
▁주위	-11.3005
▁일했다	-11.3007
야구	-11.3013
▁거래를	-11.3013
▁갈등이	-11.3032
인권	-11.3032
▁당사	-11.3033
현장	-11.304
▁걸고	-11.3042
▁전력을	-11.3043
방안	-11.3046
▁물리적	-11.3046
▁살리	-11.3052
기획	-11.3053
▁만들어서	-11.3055
▁되는지	-11.3057
▁업무에	-11.3059
▁모든게	-11.306
▁시간이다	-11.3061
부담	-11.3062
▁바라보	-11.3063
선에서	-11.3063
시킨다	-11.3064
▁위원들	-11.3064
▁걸리는	-11.3067
▁덜어	-11.3072
▁문화적	-11.3072
▁남자친구의	-11.3073
특	-11.3074
▁개인적	-11.3078
만원이	-11.3078
▁동화	-11.3081
▁생각으로	-11.3086
▁해서는	-11.3091
▁혼자서	-11.3097
비서관	-11.3098
▁매진	-11.3102
▁연극	-11.3104
▁농장	-11.3108
▁공이	-11.3109
휘	-11.3109
▁웃음	-11.3111
▁선대위	-11.3113
▁보건	-11.3115
▁남았	-11.3118
▁Bob	-11.3121
my	-11.3121
줬으면	-11.3123
닉	-11.3126
품을	-11.3126
▁고비	-11.3127
▁정치인	-11.3131
흐	-11.3132
엠	-11.3132
▁채팅하	-11.3136
깨	-11.3137
핵	-11.3138
벤	-11.3138
농협	-11.3142
늦	-11.3143
박람회	-11.3143
▁초기에	-11.3144
민족	-11.3144
몸	-11.3145
개성공단	-11.3146
클럽	-11.3146
FTA	-11.3146
변호사	-11.3147
예술	-11.3147
아무리	-11.3147
년전	-11.3147
저녁	-11.3147
아파트	-11.3148
민주주의	-11.3149
토론	-11.315
▁떠오르	-11.3151
1000	-11.3151
추경	-11.3153
랑스러운	-11.3155
지난달	-11.3155
▁공동의	-11.3155
▁두달	-11.3155
먹고	-11.3155
▁후보자에	-11.3156
▁무산	-11.3158
일각에서	-11.3159
명령	-11.3159
▁최소화하	-11.316
위반	-11.3163
▁불편하	-11.3163
▁마운드	-11.3164
따라서	-11.3167
닝	-11.3169
개방	-11.317
이구나	-11.317
▁지르	-11.3171
투어	-11.3173
▁타코	-11.3174
▁재즈	-11.3175
재산	-11.3182
인데요	-11.3187
선언	-11.3188
▁선보이	-11.3189
▁좌우	-11.3189
▁맛이	-11.3193
▁판단할	-11.3194
▁우리은행	-11.3197
▁정하고	-11.3198
▁잘못을	-11.3198
▁뜨	-11.3203
청소년	-11.3203
의료원	-11.3205
▁미뤄	-11.3207
거니	-11.3207
▁차지하는	-11.3209
차로	-11.3211
▁싶었	-11.3213
그간	-11.3214
법정	-11.3215
놀이	-11.322
▁당에	-11.3221
▁대표적	-11.3221
감이	-11.3221
익명	-11.3221
▁근로	-11.3221
▁추구	-11.3225
꾼	-11.3228
▁없으니	-11.3228
방안을	-11.3229
었는지	-11.323
스럽	-11.3232
3%	-11.3233
▁규명	-11.3233
▁역전	-11.3235
▁안와	-11.3236
팩	-11.3237
▁어플	-11.3237
경비	-11.324
발표	-11.3241
▁분석한	-11.3243
▁계신	-11.3244
내용	-11.3245
영상	-11.3247
▁익숙	-11.3249
▁정통	-11.3249
▁잃었	-11.325
IC	-11.3251
드려요	-11.3255
▁미흡	-11.3256
▁어떨까	-11.3257
▁불거	-11.3258
▁사라지	-11.3258
정부와	-11.3258
▁아닐까	-11.3259
박씨	-11.3263
▁웃어	-11.3263
▁읽으	-11.3263
이예요	-11.3263
▁가늠	-11.3264
▁헤	-11.3264
헌법	-11.3265
▁준비할	-11.3266
▁평가가	-11.3266
▁기다리면	-11.3267
▁가뭄	-11.3268
▁투입해	-11.3269
▁액션	-11.3269
탬	-11.327
▁돌아올	-11.3271
▁기독교	-11.3271
▁침몰	-11.3271
▁다툼	-11.3271
▁내비쳤다	-11.3271
▁넘겼다	-11.3271
▁부드러운	-11.3271
▁부장검사	-11.3271
▁사흘	-11.3271
▁샌드위치	-11.3271
▁섰다	-11.3271
▁슬픔	-11.3271
▁안팎	-11.3271
▁읽니	-11.3271
▁좋네	-11.3271
▁튼튼	-11.3271
▁프리미어리그	-11.3271
▁용기내서	-11.3271
▁끝마치	-11.3271
▁잘됐네	-11.3271
▁핀테크	-11.3271
▁후유증	-11.3271
▁빅데이터	-11.3271
▁답답해	-11.3271
▁관건	-11.3271
▁배고파	-11.3271
▁파도타기	-11.3271
▁협치	-11.3272
▁국립공원	-11.3272
▁면담	-11.3272
▁그래픽	-11.3272
▁금리인상	-11.3272
▁슈팅	-11.3272
▁꿈꾸	-11.3272
▁낮춰	-11.3272
▁형사합의	-11.3272
▁꼽았다	-11.3272
▁쐬고	-11.3272
▁선톡	-11.3272
▁기자회견	-11.3272
▁맞춘	-11.3272
▁자리잡	-11.3272
언더파	-11.3272
▁금발	-11.3273
▁인턴	-11.3273
▁시험공부	-11.3273
▁면밀히	-11.3273
▁의원총회	-11.3273
▁진학	-11.3273
▁치밀	-11.3273
▁헤어졌는데	-11.3273
▁애호가	-11.3273
집니다	-11.3273
▁가짜	-11.3273
▁자부심	-11.3273
▁어쩌면	-11.3274
▁호투	-11.3274
▁땅볼	-11.3274
▁피칭	-11.3274
▁같구나	-11.3274
병헌	-11.3274
▁심각하	-11.3275
▁염려	-11.3275
▁무척	-11.3275
▁여성의	-11.3276
▁부착	-11.3276
▁꼽히	-11.3276
▁부검	-11.3276
▁모르겠지만	-11.3276
▁발판	-11.3276
▁어떡하지	-11.3277
▁짐작	-11.3277
▁환상적이다	-11.3278
▁마드리드	-11.3278
▁태블릿	-11.3278
▁IMF	-11.3278
▁고칠	-11.3278
▁않습니다	-11.3278
▁고대하고	-11.3278
▁안됐는데	-11.3279
▁쓰러	-11.3279
▁애매	-11.3279
▁버거	-11.328
▁성별	-11.328
▁부담스럽지	-11.328
▁불과하다	-11.328
▁준수	-11.328
▁열렸다	-11.3281
▁합쳐	-11.3281
▁취재	-11.3281
▁참아	-11.3282
▁계정	-11.3282
▁진급	-11.3282
▁불가피하다	-11.3283
▁하나하나	-11.3283
▁재미있게	-11.3283
▁교감	-11.3283
▁안전에	-11.3284
▁즐기세요	-11.3284
▁적었다	-11.3284
▁선행	-11.3285
▁이루어질	-11.3285
▁괜찮지만	-11.3285
▁반환	-11.3285
▁성남	-11.3286
▁마찬가지야	-11.3286
▁한수원	-11.3286
▁이정현	-11.3286
▁원망	-11.3286
아요	-11.3286
▁뇌물	-11.3287
▁정체	-11.3288
▁시계	-11.3288
▁하얀	-11.3288
▁찾아온	-11.3288
▁알코올	-11.3289
▁진상규명	-11.3289
▁박병호	-11.3289
▁갓	-11.3289
▁추신수	-11.3289
▁다저스	-11.3289
▁페인트	-11.3289
▁신한금융투자	-11.3289
▁샌프란시스코	-11.3289
▁반발했다	-11.3289
▁부적절	-11.3289
▁공공부문	-11.3289
▁추후	-11.3289
▁지배구조	-11.329
▁의뢰	-11.329
▁알면서도	-11.329
▁죄송하다	-11.3292
▁미쳤다	-11.3292
▁차려	-11.3293
▁캐나다에	-11.3293
▁강경	-11.3293
▁논란에	-11.3293
▁가깝다	-11.3295
▁번영	-11.3296
▁부임	-11.3297
▁선진화	-11.3297
▁빌리	-11.3298
▁신제품	-11.3299
▁펴	-11.33
▁양적완화	-11.33
▁과잉	-11.33
▁음성	-11.33
▁어렸을때	-11.33
▁꺼리	-11.3301
▁급등	-11.3301
화의	-11.3303
경우	-11.3303
▁버릴	-11.3304
▁들어왔다	-11.3304
▁현실적인	-11.3305
▁스토리	-11.3306
▁느끼게	-11.3306
▁계열	-11.3306
▁다문화	-11.3307
▁썸인지	-11.3307
▁손자	-11.3307
▁의료비	-11.3307
▁켜	-11.3308
▁괜찮다면	-11.3308
▁그나마	-11.3308
혁명	-11.331
▁않으려	-11.3311
▁뮤지컬	-11.3311
▁아프리카	-11.3311
▁문체부	-11.3311
수단	-11.3311
▁250	-11.3311
▁탄력	-11.3312
▁폭탄	-11.3313
▁고교	-11.3314
▁고장	-11.3315
▁농촌	-11.3316
▁조세	-11.3317
▁고전	-11.3318
▁발주	-11.3318
▁쇄신	-11.3321
▁맞을	-11.3321
진이	-11.3321
▁금융위기	-11.3321
▁호조	-11.3322
▁어디까지	-11.3322
▁연말	-11.3322
▁한국은행	-11.3323
▁탈당	-11.3323
▁걱정하지	-11.3323
▁소수	-11.3325
▁수단으로	-11.3325
▁동부	-11.3325
▁듣게	-11.3327
▁마라	-11.3328
▁150	-11.3329
▁가죽	-11.3329
▁누나	-11.3329
▁막상	-11.3329
▁세우고	-11.3331
▁기다리지	-11.3332
▁디스플레이	-11.3334
▁한결	-11.3334
▁맹	-11.3336
▁붙여	-11.3337
▁취한	-11.3337
▁칩	-11.3337
▁달리기에서	-11.3338
▁보증	-11.3338
▁되니	-11.3338
▁단식	-11.3338
▁오염	-11.3339
▁축하해요	-11.334
▁시신	-11.3341
▁악수	-11.3342
▁먼지	-11.3343
▁크림	-11.3343
▁관여	-11.3343
▁올해부터	-11.3344
▁입장이다	-11.3344
▁처음부터	-11.3345
▁주도권	-11.3346
▁쏟아지	-11.3348
▁책상	-11.3348
▁결론이	-11.3348
축제	-11.3349
▁계단	-11.335
▁유세	-11.335
▁E	-11.3351
▁금속	-11.3352
▁지역별	-11.3355
협의	-11.3355
쟁	-11.3355
▁새누리당이	-11.3355
▁공항	-11.3355
▁다닌다	-11.3356
▁관광객들	-11.3356
▁오승환	-11.3357
▁여동생과	-11.3357
▁말하기	-11.3357
▁지키기	-11.3358
▁김대중	-11.3359
▁헤어지자고	-11.336
▁돌아와	-11.336
▁꺼	-11.3361
▁통상	-11.3362
▁엿	-11.3362
▁표명	-11.3362
▁그린	-11.3362
▁입시	-11.3363
▁기술력	-11.3365
장비	-11.3367
▁묵	-11.3367
▁챙겨드	-11.3369
▁타임	-11.3374
▁수비수	-11.3374
▁위해서다	-11.3374
이것은	-11.3375
▁유해	-11.3376
테니	-11.3377
▁마당	-11.3378
▁맞서	-11.3382
▁계획이야	-11.3383
▁집권	-11.3383
▁보이면서	-11.3384
▁흐	-11.3385
▁출신으로	-11.3389
▁자율적	-11.3392
▁선보이고	-11.3393
▁의상	-11.3393
▁샤	-11.3393
▁요청한	-11.3395
▁복권	-11.3395
▁빼고	-11.3397
▁속해	-11.3397
▁거액	-11.3397
▁한류	-11.3399
▁클럽에서	-11.34
▁검토하겠다	-11.3401
▁예년	-11.3401
▁피해자들	-11.3401
▁간에	-11.3403
▁교실	-11.3403
아들	-11.3409
▁챙겨주	-11.3409
상황	-11.3412
▁F	-11.3412
▁타구	-11.3413
▁실전	-11.3413
▁대리	-11.3416
▁구조적	-11.3417
▁숨기	-11.3417
▁되자	-11.3419
▁행운을	-11.3424
▁있으면서	-11.3424
▁북한군	-11.3426
▁편해	-11.3427
▁생각하면서	-11.3428
석이	-11.343
▁만난지	-11.3431
▁못해서	-11.3431
▁소식에	-11.3432
▁관광지	-11.3432
▁안돼요	-11.3434
▁만화를	-11.3435
▁그러자	-11.3436
료를	-11.3438
▁사실은	-11.3438
▁나오기	-11.3438
▁특위	-11.3439
▁성분	-11.3445
▁하였다	-11.3447
▁지원금	-11.3448
▁식물	-11.345
▁순방	-11.3451
▁열정은	-11.3451
▁러시아에서	-11.3452
▁보냈고	-11.3452
▁깨지	-11.3454
화학	-11.3455
▁대표단	-11.3457
▁필요하다면	-11.3459
소에서	-11.3459
▁언론에	-11.3459
하기를	-11.3463
집에	-11.3463
▁지원해	-11.3464
▁대기업과	-11.3466
▁찾아야	-11.3466
지원센터	-11.3467
▁모델로	-11.3468
▁홈페이지에서	-11.3468
▁밴드에서	-11.3469
▁전망이	-11.347
▁캘리포니아에	-11.347
▁해법	-11.3471
▁키우는	-11.3472
당장	-11.3473
▁케빈	-11.3474
▁한숨을	-11.3475
▁지원이	-11.3476
▁사용하고	-11.3483
▁방향성	-11.3485
▁운영하	-11.3487
▁돕	-11.3488
▁이성으로	-11.3489
▁""20	-11.3489
▁인정하는	-11.3491
원인	-11.3491
▁손으로	-11.3491
건을	-11.3494
▁시작하	-11.3495
▁나선다	-11.3497
▁행운	-11.3498
돈을	-11.3499
국의	-11.3499
▁그사람	-11.35
▁최다	-11.3502
▁밖	-11.3502
▁후회가	-11.3507
▁타인	-11.3511
버린	-11.3512
▁편리	-11.3513
트를	-11.3514
▁파기	-11.3519
▁멋지지	-11.3522
▁최고야	-11.3523
▁때보다	-11.3525
▁양상	-11.3525
▁겨울을	-11.3528
▁의미에서	-11.3532
▁LA	-11.3532
▁보전	-11.3533
▁노력에	-11.3535
▁줄까	-11.354
▁이기고	-11.3541
받	-11.3545
▁진로	-11.3548
▁생겼네	-11.3549
▁날들	-11.355
▁빠져있	-11.3551
▁예상되	-11.3554
레이	-11.3556
▁지켜보는	-11.3557
▁일반적	-11.3558
수지	-11.3558
▁주변에서	-11.3561
▁신발을	-11.3562
▁부문에서	-11.3563
▁적절하	-11.3564
▁내리고	-11.3564
▁전후	-11.3565
▁증가로	-11.3568
▁째	-11.3569
▁""199	-11.3569
▁물리	-11.3571
▁대학교	-11.3572
▁연구실	-11.3573
할때	-11.3574
▁존이	-11.3577
▁구단은	-11.3595
▁금융회사	-11.3595
▁여력	-11.3596
▁가능하고	-11.3598
세로	-11.3601
▁걸어가	-11.3602
▁환상	-11.3603
▁실수를	-11.3604
▁주에	-11.3605
▁듯이	-11.3611
▁한중	-11.3618
▁중계	-11.3619
▁피로	-11.362
▁추위	-11.362
위원	-11.3621
▁보여줄	-11.3622
자들에게	-11.3622
▁기대감이	-11.3626
▁퇴근해	-11.3628
▁방식이	-11.363
▁올릴	-11.3631
▁오로	-11.3634
국방	-11.3635
▁유발	-11.3635
▁끝내고	-11.3635
▁않기를	-11.3636
▁발견되	-11.3637
▁선물로	-11.3638
▁손실이	-11.3641
배당	-11.3645
▁신인	-11.3646
▁정당성	-11.3647
▁p	-11.3649
당에서	-11.3653
▁오류	-11.3653
▁고양이는	-11.3654
야겠어	-11.3658
▁48	-11.366
▁버는	-11.3664
▁미용	-11.3666
▁무한	-11.3667
같아	-11.3668
▁압도적	-11.3679
▁간접	-11.368
▁만기	-11.3683
▁"20	-11.3685
심은	-11.3686
▁회의에	-11.3688
됐어	-11.3688
▁소비자의	-11.3689
기본	-11.3692
▁조사에	-11.3692
▁날리	-11.3703
위가	-11.3707
▁훈	-11.3708
▁통화를	-11.371
▁가자	-11.3714
▁미워	-11.3716
▁발생하	-11.3716
▁""6	-11.3718
▁뛰고	-11.3719
샤	-11.3722
광고	-11.3724
▁비밀을	-11.3731
▁감찰	-11.3736
성적	-11.3737
▁묻	-11.3737
피해	-11.374
▁상담을	-11.3745
▁배정	-11.375
해왔	-11.375
▁정권이	-11.375
자격	-11.3751
냐고	-11.3758
한미	-11.3759
▁사외이사	-11.376
▁내부에서	-11.3762
청사	-11.3772
점이	-11.3773
▁가슴을	-11.3779
▁해지	-11.3781
이네	-11.3784
▁많아지	-11.3789
▁소통하	-11.379
▁성사	-11.3792
의료	-11.3793
▁규제를	-11.3801
▁제품에	-11.3804
▁이뤄지고	-11.3805
실적	-11.3807
자인	-11.3819
▁b	-11.3822
고위급	-11.3822
▁비교해	-11.3824
▁들면	-11.3824
▁음식이	-11.3825
▁적다	-11.3827
▁없겠지	-11.3827
조에	-11.3829
본다	-11.3833
▁주인공	-11.3834
자신	-11.3842
▁정상적	-11.3847
▁될지	-11.3847
▁연애는	-11.3848
▁법이	-11.385
능	-11.386
람	-11.3867
▁흔들	-11.3869
▁위원장의	-11.3871
주민	-11.3872
▁국가들	-11.3879
▁그룹의	-11.3883
▁지금보다	-11.3897
셨다	-11.3903
▁시즌에	-11.3904
▁마찬가지	-11.3905
▁환상적	-11.3909
▁타다	-11.3914
내는	-11.3917
즈를	-11.3918
▁선원	-11.3924
변화	-11.3924
▁불어넣	-11.3927
혹	-11.3927
▁공부는	-11.3932
▁대회를	-11.3935
▁주장이	-11.3936
▁역사에	-11.3936
▁표현해	-11.3937
▁분석이	-11.3938
육	-11.3943
▁적발	-11.3945
시민들	-11.3945
▁창업자	-11.3945
▁담당자	-11.3952
▁약속한	-11.3954
사로	-11.3956
경기를	-11.3957
리라	-11.3961
놀	-11.3963
▁과거의	-11.3963
▁행사에서	-11.3967
대에서	-11.3968
빨리	-11.398
▁해야한다	-11.3986
▁수업이	-11.3987
▁여자친구의	-11.3987
▁값	-11.3988
▁봄이	-11.3988
팬	-11.3991
권이	-11.3994
▁민주당이	-11.3994
▁노력하	-11.3994
대법원	-11.3997
중앙	-11.3997
▁증명	-11.4001
▁협조해	-11.4002
▁내실	-11.4004
니아	-11.4005
▁무엇	-11.4005
납	-11.4008
내년에	-11.4011
▁측에서	-11.4013
▁인력이	-11.4014
▁지나면	-11.4015
▁윤리	-11.402
탁	-11.4023
▁사랑과	-11.4024
▁물에	-11.4026
▁생기면	-11.4026
▁정세	-11.4027
▁나갔	-11.4027
앙	-11.4027
▁성경	-11.4027
이라니	-11.4028
▁앵무새	-11.4029
▁무능	-11.4029
념	-11.4029
▁좋으면	-11.403
좌	-11.4031
탐	-11.4032
500	-11.4032
호텔	-11.4033
▁쉬어	-11.4033
외교	-11.4036
J	-11.4036
회에	-11.4036
경찰청	-11.4038
▁근본	-11.4038
타운	-11.4039
맹	-11.404
7000	-11.4041
특위	-11.4042
파운드	-11.4044
외국	-11.4044
콘	-11.4045
갑니다	-11.4047
6000	-11.4047
참여	-11.4049
바퀴	-11.4049
등록	-11.405
▁길어	-11.4051
▁종합적	-11.4051
▁세종	-11.4051
결정	-11.4051
스티	-11.4052
교통	-11.4052
캠프	-11.4052
박물관	-11.4052
국민은행	-11.4053
4000	-11.4053
NH	-11.4054
꿈	-11.4056
맘	-11.4056
정확한	-11.4056
브랜드	-11.4056
형을	-11.4056
고등학교	-11.4056
▁장소에	-11.4057
다양한	-11.4058
확보	-11.4058
만나서	-11.4059
농업	-11.4059
타자	-11.4059
코드	-11.406
종목	-11.4061
변경	-11.4063
▁드네	-11.4063
주식	-11.4065
단순	-11.4067
전혀	-11.4067
총선	-11.4068
PS	-11.4068
거래소	-11.4069
항상	-11.407
▁정리해	-11.4071
▁돌아보	-11.4071
공격	-11.4076
공약	-11.4077
제재	-11.4078
▁나가고	-11.4079
확인	-11.4081
▁쏟아	-11.4087
h	-11.4088
뿐이다	-11.409
매수	-11.4095
▁확실	-11.4095
▁믿음이	-11.4097
▁실감	-11.4097
오래	-11.4098
▁헤어져야	-11.4098
연금	-11.4099
▁가까워	-11.4103
사리	-11.4103
행사를	-11.4104
점으로	-11.4104
▁남는	-11.4106
▁계절	-11.4106
▁챔피언	-11.4107
마음	-11.4107
▁38	-11.4108
▁사안이	-11.411
▁피해는	-11.4111
주에	-11.4112
▁개선이	-11.4114
▁번역	-11.4114
속에서	-11.4116
김종	-11.4116
활동이	-11.4118
문제가	-11.4118
소식	-11.412
해야만	-11.412
▁나누는	-11.4127
▁의장이	-11.4127
▁궁금하	-11.413
고싶어	-11.4132
▁기가	-11.4139
랜드	-11.4139
▁잘하지	-11.4141
▁던져	-11.4142
▁퇴직	-11.4142
해지는	-11.4144
▁분산	-11.4147
▁어렸을	-11.4149
규제	-11.4152
룩	-11.4152
▁납득	-11.4154
법상	-11.4155
님이	-11.4156
칙	-11.4159
▁정직	-11.4161
▁공부해	-11.4162
▁동료들	-11.4162
▁내주	-11.4162
성공	-11.4163
▁짜증	-11.4164
▁고추	-11.4165
▁해주	-11.4166
끔	-11.4166
닷컴	-11.417
▁메리	-11.4171
▁출국	-11.4172
▁출산	-11.4173
▁신앙	-11.4173
▁재판부	-11.4174
▁끝마쳤	-11.4175
▁체계적	-11.4175
▁먹는거	-11.4176
터를	-11.4176
▁금융감독원	-11.4176
밍	-11.4176
▁시애틀에	-11.4176
금융지주	-11.4176
랄	-11.4176
▁마땅	-11.4178
해지고	-11.4178
▁후련하	-11.4178
▁발탁	-11.4179
▁분석하	-11.4179
▁실시한	-11.4179
튼	-11.4179
신문	-11.418
▁댄스	-11.418
▁불렀	-11.418
▁오하이오	-11.418
하이닉스	-11.418
▁걷기	-11.418
▁끔찍해	-11.418
▁뜨개질	-11.418
▁멈춰	-11.418
▁보이스피싱	-11.418
▁싶습니다	-11.418
▁앵커	-11.418
▁역설했다	-11.418
▁이별통보	-11.418
▁잊기	-11.418
▁탄도미사일	-11.418
▁핫도그	-11.418
▁블록체인	-11.418
▁출퇴근	-11.418
▁첼시	-11.418
▁어둠	-11.418
▁치열한	-11.418
▁촛불집회	-11.4181
▁tx	-11.4181
▁일으킨	-11.4181
▁타이핑	-11.4181
▁떨어졌어	-11.4181
▁체질	-11.4181
▁사드배치	-11.4181
▁외환은행	-11.4181
▁파이팅	-11.4181
▁뜻깊	-11.4181
▁확고한	-11.4181
▁푸른	-11.4181
▁산사태	-11.4181
▁모텔	-11.4181
▁서핑하러	-11.4181
▁오찬	-11.4182
▁외압	-11.4182
▁고도화	-11.4182
▁터키	-11.4182
▁시달리	-11.4182
▁급속	-11.4182
▁충분하다	-11.4182
▁언행	-11.4182
▁포격	-11.4183
▁예외	-11.4183
▁헤어질	-11.4183
▁굉장하다	-11.4183
웨어	-11.4184
▁적립	-11.4184
▁재밌겠다	-11.4184
▁악재	-11.4184
▁차분히	-11.4184
▁샘이야	-11.4184
▁붙잡아	-11.4184
▁이끌었다	-11.4184
▁생태계	-11.4184
▁출하	-11.4184
▁불량	-11.4185
▁않겠지만	-11.4185
▁거짓	-11.4185
▁도출	-11.4185
▁되었습니다	-11.4185
▁70%	-11.4185
▁유전자	-11.4186
▁시원해	-11.4186
▁참을	-11.4186
▁맺었다	-11.4186
▁알렸다	-11.4186
▁위증	-11.4186
▁발달	-11.4186
▁택배	-11.4186
▁산불	-11.4186
▁어리다	-11.4186
▁찬반	-11.4187
▁존경	-11.4187
▁지킬	-11.4187
▁치매	-11.4187
▁지폐	-11.4187
▁엔화	-11.4187
▁폭풍	-11.4187
▁시급하다	-11.4187
▁컨퍼런스	-11.4187
▁방통위	-11.4187
▁점유율	-11.4187
▁보여줘야	-11.4188
▁위스콘신에서	-11.4188
▁답장	-11.4188
▁천연	-11.4188
▁잘해줘	-11.419
▁관내	-11.419
▁던전	-11.4191
▁의류	-11.4191
▁지쳤나	-11.4191
▁제외	-11.4191
▁주한	-11.4192
▁단호하게	-11.4192
▁대국민	-11.4192
▁모금	-11.4192
▁그리움	-11.4193
▁예고했다	-11.4193
▁만들려고	-11.4193
▁30%	-11.4193
▁때문입니다	-11.4193
▁벌여	-11.4195
▁맛있다	-11.4196
▁벌였다	-11.4196
자유	-11.4196
▁추궁	-11.4196
▁실정	-11.4196
▁확인된	-11.4197
▁무겁다	-11.4197
▁어려웠다	-11.4197
"2013	-11.4197
▁편안하게	-11.4197
▁남자친구랑	-11.4198
▁항소심	-11.4199
▁훌	-11.4199
▁케이블	-11.4199
▁보건복지부	-11.4199
▁자르	-11.4199
▁패널	-11.4199
▁권한대행	-11.42
▁여우	-11.42
▁먹으러	-11.42
▁요리사야	-11.42
▁아마존	-11.4201
▁밟아	-11.4201
▁물이	-11.4201
▁욕구	-11.4202
▁유지해야	-11.4203
▁비극	-11.4203
▁젊은이들	-11.4203
▁저축	-11.4203
▁행정관	-11.4204
체제	-11.4204
▁안타깝게	-11.4204
▁들으면서	-11.4205
▁대리점	-11.4205
▁없어도	-11.4205
최종	-11.4205
▁원한다면	-11.4206
▁타결	-11.4206
▁특권	-11.4206
파크	-11.4206
▁오른쪽	-11.4208
▁원만	-11.4208
▁남자랑	-11.4209
▁수확	-11.4209
유통	-11.421
현안	-11.4211
▁말했습니다	-11.4211
▁오렌지	-11.4211
▁업무상	-11.4211
▁고스	-11.4212
▁바이러스	-11.4212
▁지었다	-11.4212
▁매수세	-11.4213
▁국감	-11.4214
▁녹음	-11.4214
▁정한	-11.4215
▁출동	-11.4215
▁슬프게도	-11.4216
▁재밌다	-11.4216
▁질병	-11.4216
▁달성했다	-11.4217
▁산책시키는	-11.4217
▁스위스	-11.4218
▁가로막는	-11.4218
▁출입	-11.4219
▁앞장	-11.422
▁사람이라면	-11.422
▁집중하겠다	-11.4221
▁무엇이든지	-11.4222
시로	-11.4222
▁영양	-11.4223
▁낯	-11.4223
▁j	-11.4223
▁원자력	-11.4224
▁기름	-11.4225
▁하루였다	-11.4225
▁지붕	-11.4225
주말	-11.4225
▁급여	-11.4225
▁묻지	-11.4225
▁가꾸기를	-11.4226
▁실패했다	-11.4226
▁시사	-11.4226
▁빵집	-11.4227
▁범인	-11.4228
▁환상적이야	-11.4228
▁한마디	-11.4228
▁원내	-11.4228
▁실태	-11.4229
상황이	-11.423
▁성장이	-11.423
▁관련해선	-11.423
▁전통시장	-11.4231
▁극복하고	-11.4232
▁포스코	-11.4232
수현	-11.4233
일정	-11.4234
▁공통점	-11.4234
가스	-11.4235
▁논다	-11.4235
시쯤	-11.4235
▁선언한	-11.4235
▁700	-11.4236
▁전교조	-11.4237
▁기아차	-11.4237
▁O	-11.4237
▁세종시	-11.4238
▁밝히지	-11.4238
▁규정하고	-11.4238
▁승마	-11.4238
▁공작	-11.424
▁생각이에요	-11.424
▁들어올	-11.4241
▁현직	-11.4242
▁강연에서	-11.4242
회는	-11.4244
▁건강하게	-11.4244
▁흐르고	-11.4245
▁공제	-11.4245
▁모집한다	-11.4246
▁졸업했다	-11.4246
관을	-11.4246
▁연료	-11.4247
▁농사	-11.4247
▁나만큼	-11.4248
▁만루	-11.4248
▁회전	-11.4248
▁도구	-11.4248
▁황교안	-11.4249
▁하에서	-11.4249
▁콩	-11.4249
▁신한은행	-11.4249
▁제품들	-11.425
▁레스토랑에서	-11.425
▁검은	-11.425
▁골목	-11.4251
▁넘치는	-11.4251
▁설비	-11.4251
▁즐기면서	-11.4252
▁외국어	-11.4252
▁구멍이	-11.4253
▁해당한다	-11.4254
▁저금리	-11.4254
▁나아지	-11.4254
▁최고죠	-11.4255
▁축사	-11.4257
▁종전	-11.4259
▁요인으로	-11.4259
해볼까	-11.4259
▁화해	-11.426
▁선보인다	-11.4265
▁부담감	-11.4265
김영	-11.4266
▁늘리고	-11.4267
▁쉬어가	-11.4267
▁판다	-11.4267
셔야	-11.4267
▁자는	-11.4268
▁집들이	-11.4272
▁전시회	-11.4277
▁너랑	-11.4277
▁출범한	-11.4278
▁시의회	-11.4278
▁누리꾼들	-11.4281
▁여권	-11.4281
▁복지부	-11.4281
▁혼다	-11.4282
▁살리기	-11.4282
▁등산	-11.4282
▁결승	-11.4283
▁태세	-11.4284
▁소유하고	-11.4285
▁해야할지	-11.4287
▁u	-11.4289
▁관할	-11.4289
▁화성	-11.4293
▁가져오	-11.4293
작업을	-11.4294
▁휴가가	-11.4295
▁콜라	-11.4297
▁록을	-11.4297
▁거겠죠	-11.4298
▁아버지와	-11.4298
▁다가오는	-11.4301
▁프로그램에	-11.4302
▁센터	-11.4312
▁참치	-11.4312
져서	-11.4315
▁진영	-11.4316
▁보였	-11.432
▁구제	-11.432
▁거둬	-11.4321
▁재해	-11.4322
▁집안	-11.4328
민의	-11.433
▁활동이	-11.4331
▁거세	-11.4332
▁최저	-11.4334
기사	-11.4336
▁ᅲ	-11.4336
▁잘한다	-11.4336
▁판단된다	-11.4338
▁뉴욕에서	-11.4339
▁무시하는	-11.4339
▁여기까지	-11.434
▁집어	-11.434
▁밤이야	-11.434
▁경남도	-11.4341
▁교육청	-11.4341
▁앉아있	-11.4342
▁이어진	-11.4343
연대	-11.4344
▁확보하기	-11.4344
되거나	-11.4346
▁때문일	-11.4346
하더니	-11.4348
김진	-11.435
▁효	-11.435
▁그려	-11.4352
▁변수	-11.4352
▁발전시켜	-11.4352
진행	-11.4354
▁가져다	-11.4354
주인	-11.4356
▁지원했다	-11.4357
▁해야겠다	-11.4359
▁움직	-11.4359
▁상품권	-11.4362
▁땀을	-11.4362
▁줘도	-11.4362
▁민사	-11.4364
수로	-11.4366
▁기관지	-11.4366
▁안부	-11.4367
대와	-11.4368
▁캠페인	-11.4369
▁신당	-11.4369
여러분	-11.437
▁채우	-11.4371
▁실력을	-11.4376
▁착용	-11.4376
▁마련할	-11.4378
▁우리집	-11.4383
▁중고	-11.4386
때는	-11.4387
▁하천	-11.4388
▁경제학	-11.4389
라든지	-11.4391
▁부분이다	-11.4391
▁공문	-11.4392
시를	-11.44
▁주전	-11.44
▁몫	-11.4403
▁김종	-11.4404
▁늘어나고	-11.4404
생활을	-11.4405
▁아니기	-11.4406
▁촉구하	-11.4406
▁먹은	-11.4407
정보통신	-11.4409
되는데	-11.4411
▁기업은	-11.4411
▁권위	-11.4412
민이	-11.4418
▁학기	-11.4419
▁개야	-11.442
▁사귀기	-11.442
▁총장이	-11.4424
▁장병들	-11.4424
▁행동이	-11.4427
▁해결해	-11.4428
▁뭐라	-11.4433
했다면	-11.4436
▁있을지도	-11.4436
▁움직이는	-11.4436
▁문구	-11.4436
▁생각하	-11.4437
▁중소기업이	-11.4438
▁단일	-11.4441
▁이름으로	-11.4444
▁단서	-11.4449
는건	-11.4452
것에	-11.4455
아서	-11.4458
▁내역	-11.446
▁밀어	-11.4464
▁특성을	-11.4467
일지도	-11.4467
▁총력	-11.4469
▁간호사로	-11.447
▁하에	-11.4472
▁이유도	-11.4472
▁조사하고	-11.4473
무역	-11.4474
▁곳곳	-11.4476
▁문자를	-11.4479
원이다	-11.4482
스터	-11.4484
▁구하는	-11.4495
▁진출한	-11.4499
원들이	-11.45
▁프랑스에서	-11.45
저희	-11.4502
▁담고	-11.4505
▁안건	-11.4506
신청	-11.4511
▁약점	-11.4516
▁가을에	-11.4521
자로서	-11.4523
▁분야에	-11.4525
▁으	-11.4525
▁목사	-11.4527
한국투자증권	-11.4531
▁확보하고	-11.4532
▁참지	-11.4533
▁충격이	-11.4534
▁어렵	-11.4543
▁차이는	-11.4543
▁쪽이	-11.4549
봤는데	-11.4551
▁품	-11.4552
▁지역이	-11.4553
그래도	-11.4553
신고	-11.4555
▁침대	-11.4556
이동	-11.4558
제약	-11.456
▁위해선	-11.4562
▁개장	-11.4563
만원으로	-11.4564
▁의정부	-11.4567
상호	-11.4571
보통	-11.4577
▁부작용이	-11.4579
목적	-11.458
▁헤어지는	-11.4582
인치	-11.4588
학년도	-11.4589
▁창원	-11.4592
기업이	-11.4594
▁대상자	-11.4595
▁촉진	-11.4596
▁등장	-11.4597
▁단계에서	-11.4602
▁바라고	-11.4603
▁전략이	-11.4606
수요	-11.461
▁얼굴에	-11.461
▁유니	-11.4611
▁인간이	-11.4612
▁유로	-11.4612
▁강조한	-11.4612
▁유저	-11.4613
▁가도	-11.4615
안녕하세요	-11.4616
▁살았	-11.4619
▁결정은	-11.4622
해줘서	-11.4624
▁심장	-11.4629
▁해왔다	-11.463
▁시작하기	-11.463
▁건강이	-11.4631
박스	-11.4632
▁강화하기	-11.4635
▁플레이어	-11.4636
▁날개	-11.4636
▁김민	-11.4637
용할	-11.4637
▁주겠다	-11.4637
비율	-11.4642
▁일으켜	-11.4645
유지	-11.4646
▁찍는	-11.4648
▁보는게	-11.4649
▁완공	-11.4652
▁의학	-11.4655
보도	-11.4662
4%	-11.4664
▁강점	-11.4669
▁하는건	-11.4671
▁것이지	-11.4675
▁폐기	-11.4677
▁양자	-11.4678
▁참가자들	-11.4678
▁대개	-11.4678
▁만들어진	-11.4678
영철	-11.4682
▁확대에	-11.4682
센터에	-11.469
▁지났	-11.4697
▁말해줄	-11.4697
▁검사를	-11.4697
▁좋아하기	-11.4704
▁중국에	-11.4705
▁전설	-11.4709
▁공간을	-11.4713
확대	-11.4713
▁발휘	-11.4715
▁생각하기	-11.4717
▁좋을지	-11.4717
▁IP	-11.4719
▁죽이	-11.4719
와서	-11.4719
▁저의	-11.4725
부상	-11.4726
▁일어나고	-11.4727
가봅니다	-11.4727
▁공백	-11.4728
▁시민의	-11.4731
▁입장은	-11.4734
▁인근에	-11.4735
문화를	-11.4735
서야	-11.4735
장애	-11.4736
▁준공	-11.4737
진영	-11.4738
▁달라져	-11.474
H	-11.4741
u	-11.4742
인듯	-11.4744
만에	-11.4744
▁전략으로	-11.4745
▁해내	-11.4753
▁급증	-11.4754
▁행복하	-11.4754
▁금융사	-11.4758
▁유럽의	-11.476
▁들어왔	-11.4764
조선	-11.4764
▁업	-11.4769
포드	-11.477
▁사람만	-11.4773
▁줄일	-11.4775
약을	-11.4776
▁사용하지	-11.4778
▁수천	-11.4785
▁말만	-11.4786
▁결론	-11.4789
▁같아서	-11.4792
2%	-11.4793
▁거점	-11.4795
▁감수	-11.4795
대전	-11.4801
구에	-11.4801
▁늦	-11.4804
▁도시의	-11.4809
▁저와	-11.4812
▁고려한	-11.4813
▁하니까	-11.4816
▁사실과	-11.4823
트라	-11.4824
쟁이	-11.4828
매치	-11.4828
▁기한	-11.4831
▁때문이	-11.4835
▁그것들	-11.484
▁음악이	-11.4846
이라서	-11.4848
▁주부	-11.4848
미국의	-11.4849
▁거론하	-11.4851
▁판단이	-11.4854
▁포함된	-11.4857
▁기대하	-11.4858
▁집중되	-11.4863
으려	-11.4868
▁연결되	-11.4869
수석	-11.4873
였	-11.4873
▁39	-11.4875
▁서울시장	-11.4881
퍼트	-11.4882
▁브랜드로	-11.4883
투자자	-11.4884
홈런	-11.4886
▁재검토	-11.4887
▁논쟁	-11.4887
지원을	-11.4888
▁독수리	-11.489
▁선택의	-11.4894
사업으로	-11.4894
▁동생이	-11.4896
▁스트레스가	-11.49
▁돌아왔	-11.49
▁69	-11.4905
▁영웅	-11.4905
▁보육	-11.4905
기반	-11.4906
▁아침이	-11.4906
놈	-11.4907
▁포럼	-11.4908
▁설치해	-11.4908
▁트위터에	-11.4915
▁여자애들	-11.4915
▁대응해	-11.4918
가지고	-11.492
▁소외	-11.4927
▁종사하	-11.4928
행하는	-11.493
▁노력해야	-11.4932
해준	-11.4933
받고	-11.4934
▁진출이	-11.4938
▁정성	-11.4939
▁곳곳에	-11.4941
에게서	-11.4942
있습니다	-11.4945
라기보다	-11.4946
▁가속화	-11.4947
▁사태에	-11.4948
회담	-11.4949
▁한데	-11.4958
▁통과되	-11.4961
그리	-11.4966
보험	-11.4968
사들이	-11.497
▁짝사랑이	-11.497
▁막고	-11.4972
▁작용	-11.4977
애한테	-11.4978
▁텍사스에	-11.498
▁국회와	-11.4984
▁끌	-11.4987
롱	-11.4987
됐기	-11.4996
▁찌	-11.4997
하신	-11.5
▁원조	-11.5
번호	-11.5002
여자	-11.5004
따	-11.501
▁사업부	-11.5012
▁죽고	-11.5018
▁모험	-11.5018
▁일만	-11.502
▁정치가	-11.502
▁점심시간	-11.5021
▁저자	-11.5021
▁민주	-11.5023
▁자체는	-11.5024
▁걸음	-11.5024
▁헌법재판소	-11.5025
수업	-11.5028
꺼야	-11.5028
▁이기는	-11.503
▁의혹에	-11.503
▁맡았	-11.5036
▁환경이	-11.5038
▁유가족	-11.5038
▁스포츠는	-11.5042
합참	-11.5045
뚝	-11.5045
모바일	-11.5046
얼마	-11.5047
그렇기	-11.5049
감정	-11.5049
깊	-11.5051
롤	-11.5051
백화점	-11.5052
▁다가오	-11.5052
빌	-11.5053
미디어	-11.5053
타워	-11.5053
붙	-11.5053
캐	-11.5053
싸움	-11.5054
하반기	-11.5055
새정치연합	-11.5055
뉴욕	-11.5055
피고인	-11.5055
넌	-11.5055
▁52	-11.5055
무엇보다	-11.5055
좋았어	-11.5056
첫	-11.5056
어려운	-11.5056
근무	-11.5057
미술	-11.5057
국회의원	-11.5057
커피	-11.5058
재벌	-11.5058
오픈	-11.5058
사이트	-11.5058
▁사교적	-11.5059
오랜	-11.506
영향	-11.5062
아베	-11.5063
발생	-11.5063
금융권	-11.5064
용품	-11.5064
핵심	-11.5065
심판	-11.5065
달아	-11.5065
민생	-11.5065
집행	-11.5065
▁확보하는	-11.5067
전환	-11.5067
▁참석자들	-11.5068
방금	-11.507
▁의존	-11.5072
공급	-11.5073
혐의	-11.5073
▁먹었	-11.508
▁사야	-11.508
▁즐기지	-11.5082
할게요	-11.5082
▁그만두	-11.5083
뉴스	-11.5083
▁외교관	-11.5084
시티	-11.5085
▁검	-11.5086
았습니다	-11.5088
▁인정받	-11.509
▁순간에	-11.5098
▁사회가	-11.5098
운용	-11.5099
▁야근	-11.5099
역량	-11.5103
물량	-11.5105
자본	-11.5106
▁어울리	-11.5107
▁외상	-11.5108
불안	-11.511
▁들리	-11.5111
쳐야	-11.5113
되자	-11.512
▁체육관	-11.5121
▁알아차	-11.5122
▁괴	-11.5122
92	-11.5124
▁가깝	-11.5125
▁풀리	-11.5126
▁강남구	-11.5129
리스트	-11.513
▁벌어지	-11.5132
▁수치	-11.5133
▁정권교체	-11.5137
▁예쁘	-11.5138
주어	-11.5138
▁도입해	-11.5141
▁슬프	-11.5142
▁훌륭하	-11.5142
▁아쉽	-11.5143
▁마련하는	-11.5143
▁맥락	-11.5144
▁출판	-11.5146
▁가치관	-11.5146
▁후에는	-11.5149
▁최적	-11.5149
대원	-11.515
▁식료품	-11.5151
▁유효	-11.5151
태평양	-11.5154
랜	-11.5155
▁연령	-11.5156
현실	-11.5157
▁적임자	-11.5158
▁싱글이	-11.5158
▁정규	-11.5161
▁끌어	-11.5162
▁죄송	-11.5163
▁당해	-11.5164
▁제시한	-11.5164
▁작아	-11.5169
▁폴	-11.517
▁천재	-11.517
▁스타벅스	-11.517
▁방학이	-11.5172
멸	-11.5174
▁농부	-11.5175
컬	-11.5175
▁국산	-11.5178
랍니다	-11.5178
▁어떨	-11.5179
▁아티스트	-11.5179
단의	-11.518
도널드	-11.518
▁정부서울청사	-11.518
뛸	-11.518
팡	-11.518
▁sns	-11.518
▁공직선거법	-11.518
▁기념촬영을	-11.518
▁대륙	-11.518
▁따뜻해	-11.518
▁무작정	-11.518
▁브라우니	-11.518
▁쌓인	-11.518
▁오키나와	-11.518
▁웃겨	-11.518
▁인센티브	-11.518
▁잤어	-11.518
▁좋습니다	-11.518
▁증거인멸	-11.518
▁쫓아	-11.518
▁청첩장	-11.518
▁콘셉트	-11.518
▁패키지	-11.518
▁프랭크	-11.518
▁프로모션	-11.518
▁흘려	-11.518
▁갇혀	-11.518
▁명목으로	-11.518
▁무거운	-11.518
▁뷰티	-11.518
▁삭감	-11.518
▁아꼈다	-11.518
▁화답했다	-11.518
▁데리러	-11.518
▁컬렉션	-11.518
▁솔직해	-11.518
▁단둘이	-11.518
▁답답한	-11.518
▁론칭	-11.518
▁몸무게	-11.518
▁단말기	-11.518
▁깨끗하게	-11.518
▁부드럽	-11.518
▁가이드라인	-11.518
▁확고히	-11.5181
▁신경써	-11.5181
▁눈썹	-11.5181
▁무거워	-11.5181
▁환승이별	-11.5181
▁거북이	-11.5181
지극히	-11.5181
플랜	-11.5181
▁리듬	-11.5181
▁흥미를	-11.5181
▁유효기간	-11.5181
▁돌본다	-11.5181
▁드셔보	-11.5181
▁아침식사	-11.5181
▁내놓을	-11.5181
▁면역	-11.5181
▁인멸	-11.5181
▁베풀	-11.5181
▁아쉬운	-11.5181
▁부리토	-11.5182
▁면허	-11.5182
▁잊어버리	-11.5182
▁걸어다니	-11.5182
▁태워	-11.5182
▁상하이	-11.5182
▁에릭	-11.5182
▁대주주	-11.5182
▁소홀	-11.5182
▁잡혀	-11.5182
▁느껴져	-11.5182
▁담았다	-11.5182
▁비밀번호	-11.5182
원장은	-11.5183
▁외로운	-11.5183
▁몸값	-11.5183
▁청약	-11.5183
▁느긋하게	-11.5183
최씨	-11.5183
▁힘내	-11.5183
▁고백했는데	-11.5183
▁동원해	-11.5184
▁미팅	-11.5184
▁학점	-11.5184
개월째	-11.5184
▁빨라	-11.5184
▁있겠느냐	-11.5184
▁영토	-11.5184
▁올라갈	-11.5185
▁증액	-11.5185
▁다듬	-11.5185
▁썸남이랑	-11.5185
▁준비중이야	-11.5185
▁없겠네	-11.5185
▁증설	-11.5185
예정	-11.5185
▁무관심	-11.5185
▁기관이	-11.5185
▁호황	-11.5185
▁중장기적	-11.5186
▁이라크	-11.5186
▁회식	-11.5186
▁의총	-11.5186
▁전폭적	-11.5186
다시피	-11.5186
▁터질	-11.5186
▁사로잡	-11.5187
▁높아질	-11.5187
▁튀	-11.5187
▁송환	-11.5187
▁교훈	-11.5187
▁죄질	-11.5187
▁고액	-11.5187
▁생각했나봐	-11.5188
▁맛집	-11.5188
▁창당	-11.5188
▁메이크업	-11.5188
▁사각지대	-11.5188
▁아마추어	-11.5188
▁짙	-11.5188
▁위생	-11.5188
▁질타했다	-11.5189
▁재생	-11.5189
▁몸매	-11.5189
▁교내	-11.5189
▁비결	-11.5189
버렸어	-11.5189
▁흔들림	-11.5189
▁동반자	-11.519
▁넣었다	-11.519
▁창단	-11.519
화와	-11.519
▁모양새	-11.519
▁일련	-11.5191
▁로맨틱한	-11.5191
▁대충	-11.5191
▁유령	-11.5191
▁벤치	-11.5191
▁회계사야	-11.5191
▁조종	-11.5191
▁예민한	-11.5192
n	-11.5192
▁고창	-11.5192
▁석방	-11.5192
▁속상해	-11.5193
▁매너	-11.5193
▁미치게	-11.5193
▁적시타	-11.5193
▁앨라배마에서	-11.5194
▁가담	-11.5194
▁당직	-11.5194
▁인공	-11.5194
▁때문이었다	-11.5195
▁많네	-11.5195
▁소모	-11.5195
▁보태	-11.5196
▁패소	-11.5197
▁이기적인	-11.5197
▁질책	-11.5197
▁양파	-11.5198
▁부근	-11.5198
▁질을	-11.5198
▁징	-11.5198
▁개최된	-11.5199
▁제목	-11.5199
▁조부모님	-11.5199
▁당연하다	-11.5199
▁티비	-11.52
▁어느정도	-11.52
▁재활	-11.5201
▁격리	-11.5201
▁후원금	-11.5201
▁신축	-11.5201
▁베이징	-11.5201
▁부장판사	-11.5201
▁웨딩	-11.5201
▁월스트리트저널	-11.5201
▁커뮤니케이션	-11.5201
▁휠체어	-11.5201
▁양극화	-11.5201
▁마이너스	-11.5201
▁가급적	-11.5201
▁쇠고기	-11.5202
▁저소득층	-11.5202
▁비과세	-11.5202
▁VR	-11.5202
▁기념식	-11.5202
▁무소속	-11.5202
▁식탁	-11.5202
▁관계부처	-11.5202
▁간단한	-11.5203
▁파산	-11.5203
▁바늘	-11.5203
▁저수지	-11.5204
▁신병	-11.5204
▁도심	-11.5204
▁시행령	-11.5205
▁구성돼	-11.5205
▁민영화	-11.5205
▁밀당	-11.5206
▁발휘할	-11.5206
▁김일성	-11.5206
▁우연히	-11.5206
▁공개된	-11.5206
▁경질	-11.5206
▁작용할	-11.5207
▁이례적	-11.5207
▁쉬어야	-11.5208
▁원천	-11.5208
▁있네	-11.5208
▁붙어	-11.5209
▁버려	-11.521
▁평했다	-11.521
▁갈래	-11.521
▁실시했다	-11.521
▁불가능한	-11.5211
▁틀림없이	-11.5212
▁껴안고	-11.5212
▁긴장감	-11.5213
▁배포	-11.5213
여기에	-11.5213
▁기여했다	-11.5214
▁격려했다	-11.5214
▁준다면	-11.5214
▁BMW	-11.5215
▁포틀랜드	-11.5215
▁테이프	-11.5215
▁측정	-11.5215
▁청탁	-11.5215
▁듣는데	-11.5216
▁주시	-11.5216
▁삼진	-11.5216
▁좌파	-11.5217
성의	-11.5217
청년	-11.5219
▁1%	-11.522
초에	-11.522
▁미용실	-11.522
▁배후	-11.522
▁한국경제	-11.522
▁산업은행	-11.522
▁포기하지	-11.522
▁갖는다	-11.5221
▁동아리	-11.5222
▁조종사	-11.5223
▁통행	-11.5224
▁음모	-11.5224
과목	-11.5224
해져	-11.5224
▁직구	-11.5225
계를	-11.5225
▁돌아서	-11.5225
▁압박했다	-11.5226
▁박근혜정부	-11.5226
▁타이어	-11.5226
▁뒀다	-11.5227
기상청은	-11.5227
▁세계적	-11.5228
▁태극기	-11.5228
▁실종자	-11.5228
▁톱	-11.5229
▁공무원연금	-11.523
▁찾으려	-11.523
▁장르	-11.523
▁비자금	-11.523
▁청소년들	-11.5231
지출	-11.5231
민주당은	-11.5233
▁홀로	-11.5233
▁논문	-11.5233
▁알아내	-11.5234
▁상정	-11.5235
▁제천	-11.5235
▁대검	-11.5235
▁판결했다	-11.5235
▁일어난다	-11.5239
▁그치	-11.5239
▁깨어	-11.524
▁보내주	-11.5241
▁확인하기	-11.5241
률이	-11.5241
▁엉	-11.5242
▁선관위	-11.5242
▁인정했다	-11.5242
▁모으는	-11.5243
▁선거운동	-11.5244
▁복수	-11.5244
▁둘째	-11.5245
▁줄이기	-11.5245
▁채식	-11.5246
▁제보	-11.5246
▁못한다면	-11.5246
정현	-11.5247
▁청원	-11.5247
▁일과	-11.5248
▁원정	-11.5249
▁에이스	-11.5249
▁않은데	-11.5249
짐에	-11.525
▁걸까요	-11.525
▁파주	-11.525
▁모자라	-11.525
강에	-11.5251
▁국정화	-11.5251
▁샘	-11.5251
▁공개했다	-11.5252
▁야생	-11.5252
▁콜로라도에	-11.5252
곳이	-11.5252
질의	-11.5254
▁참고인	-11.5254
만으로도	-11.5255
▁본부장	-11.5255
브라	-11.5255
▁소유권	-11.5256
▁비트코인	-11.5256
▁프랜차이즈	-11.5256
▁레벨	-11.5257
▁좋아하던	-11.5257
▁노동조합	-11.5257
▁보답	-11.5257
▁버려야	-11.5258
▁있을거예요	-11.5258
▁저가	-11.5259
▁좋아해주는	-11.5259
▁체결했다	-11.526
▁또래	-11.526
▁책임감을	-11.5261
▁용서	-11.5263
▁교육과정	-11.5263
준다	-11.5263
▁대박	-11.5264
유정	-11.5266
새로	-11.5266
▁추진해야	-11.5266
▁야기	-11.5268
▁얘기했다	-11.5269
▁중앙당	-11.5269
▁쌍	-11.527
▁유감스럽게도	-11.527
▁800	-11.527
▁세이브	-11.527
▁지켜야	-11.5272
▁보험료	-11.5272
▁수영장에서	-11.5273
▁64	-11.5274
▁부당한	-11.5275
▁자유로	-11.5275
▁느	-11.5277
▁운영되	-11.5277
▁마법	-11.5277
▁창출하는	-11.5279
▁최적화	-11.5279
▁실감이	-11.528
▁답장이	-11.5282
▁셋	-11.5283
▁남에게	-11.5284
권에	-11.5284
▁빅	-11.5285
▁진지하	-11.5285
.6%	-11.5285
▁비로	-11.5286
▁예상하고	-11.5287
▁거쳐야	-11.5288
▁나눠주	-11.5291
▁공군	-11.5293
▁흘러가	-11.5294
▁피했다	-11.5297
▁둥	-11.5298
▁비트	-11.5298
▁거론되	-11.5301
▁글로	-11.5301
▁것일까	-11.5302
▁다르지	-11.5303
▁모습이다	-11.5304
▁능	-11.5305
▁걸맞	-11.5306
▁우회	-11.5307
▁벽에	-11.5307
시장에	-11.5308
▁힘들겠지	-11.5308
일단	-11.5309
▁탁	-11.531
▁57	-11.531
만여	-11.5311
▁기상청은	-11.5312
단장	-11.5312
▁98	-11.5313
▁뻔	-11.5313
▁롱	-11.5314
허가	-11.5314
▁독도	-11.5315
▁입에	-11.5315
▁거주하	-11.5315
누가	-11.5316
▁묻고	-11.532
▁투자해	-11.5321
▁리스트	-11.5322
▁푸드	-11.5323
▁결정된	-11.5325
▁얘기하고	-11.5327
▁초석	-11.5328
▁피곤해서	-11.5328
▁업체들은	-11.5328
▁세운	-11.5328
▁예상되는	-11.5328
▁3%	-11.533
▁못해요	-11.533
▁건네	-11.5331
▁본회의에서	-11.5331
▁박물관에	-11.5331
▁있었기	-11.5333
▁수사팀	-11.5334
▁여사는	-11.5334
구역	-11.5336
셨나요	-11.5337
▁수익률이	-11.5337
▁곳이야	-11.5337
▁힘들어서	-11.5337
▁합의안	-11.5338
▁인연	-11.534
▁하시	-11.5342
▁폭로	-11.5342
▁화나	-11.5343
▁해보	-11.5343
▁통치	-11.5343
▁승무원	-11.5346
▁올라오	-11.5347
▁알린	-11.5347
▁들어간다	-11.5348
▁정권교체를	-11.5349
▁분양가	-11.5356
여행을	-11.5358
▁국회의	-11.536
▁정원에	-11.536
FC	-11.5364
▁뜻으로	-11.5364
자사고	-11.5368
▁수영하	-11.5372
▁김형	-11.5373
▁등산을	-11.5374
▁소속사	-11.5374
▁부각되	-11.5377
▁웃음을	-11.5377
▁공유하고	-11.5378
▁우수성	-11.5379
▁북부	-11.538
▁막아	-11.5382
▁근로자들	-11.5382
▁지상	-11.5384
▁플로리다의	-11.5384
▁내기	-11.5384
▁얻기	-11.5386
▁표현한	-11.5387
▁움직임을	-11.5392
달러를	-11.5393
심이	-11.5393
▁확보했다	-11.5393
▁맞나	-11.5394
▁외에도	-11.5395
▁누리	-11.5398
되며	-11.5399
▁공부하기	-11.5399
▁의자	-11.54
▁부상자	-11.54
▁방송사	-11.5401
▁하기로	-11.5402
▁합	-11.5404
▁부회장이	-11.5406
▁혼자만	-11.5408
▁모델이	-11.541
다운	-11.541
▁시점에	-11.5411
▁지원사업	-11.5411
▁해외에서	-11.5412
▁관리하고	-11.5412
▁메이	-11.5414
▁산업부	-11.5415
위원회를	-11.542
▁시간도	-11.542
▁뉴욕에	-11.5421
▁물량이	-11.5423
▁논의하고	-11.5423
▁운전자	-11.5425
▁경로	-11.5425
▁아프고	-11.5426
▁당원	-11.5426
▁원심	-11.5426
▁참가한	-11.5427
▁달아	-11.5431
차원	-11.5432
시아	-11.5433
▁활약을	-11.5434
▁제동	-11.5436
▁드리	-11.5437
▁공단	-11.5437
▁애완동물은	-11.5438
명이다	-11.544
▁"9	-11.5443
기대	-11.5444
▁살이	-11.5446
TS	-11.5446
▁해안	-11.5447
▁폐	-11.5447
▁친다	-11.5449
▁해임	-11.5449
▁원리	-11.5449
진흥원	-11.5449
▁작년에	-11.545
▁경과	-11.545
▁하야	-11.5453
▁되돌아	-11.5453
▁사람인가	-11.5455
▁오네	-11.5463
▁문신을	-11.5464
▁사귀어	-11.5464
▁방식은	-11.5465
당규	-11.5465
▁겁	-11.5466
▁거론	-11.5466
▁사태와	-11.5468
▁밝히기	-11.547
▁현지에서	-11.5472
▁줄어들고	-11.5478
▁먹어도	-11.5479
색이니	-11.548
▁명상	-11.5482
년도에	-11.5482
▁아들은	-11.5483
▁방송에서	-11.5483
▁말이야	-11.5483
▁그들과	-11.5484
리지	-11.5484
▁일정으로	-11.5486
▁선정된	-11.5487
▁기본이	-11.5489
▁무대를	-11.549
▁결과다	-11.5491
▁협력할	-11.5492
▁X	-11.5494
▁단계에	-11.5495
주영	-11.5497
mm	-11.5499
▁원화	-11.55
▁흐름	-11.5501
▁범죄에	-11.5503
▁서서	-11.5504
보라	-11.5506
▁기록하고	-11.551
▁생각해서	-11.551
▁넘어가	-11.5511
▁기능성	-11.5516
▁홈페이지에	-11.5518
▁일하지	-11.5519
▁발의	-11.5522
되었니	-11.5527
▁일정이	-11.5529
▁있더라	-11.5531
고리	-11.5531
한화	-11.5532
▁오를	-11.5543
▁사줄	-11.5543
▁바라지	-11.5546
▁지불	-11.5547
▁잡는	-11.5549
▁규정이	-11.5555
용으로	-11.5557
▁에너지가	-11.5564
▁자신은	-11.5565
되도록	-11.5569
▁일반인	-11.5569
▁서비스와	-11.5573
▁바른	-11.5575
▁하네	-11.5575
▁정보와	-11.5578
온다	-11.5578
▁해줘야	-11.5582
▁인지	-11.5591
▁가게에	-11.5593
예방	-11.5593
▁머리에	-11.5597
▁생각이다	-11.5598
▁중시	-11.56
▁행동에	-11.5604
▁터지	-11.5608
▁힘으로	-11.5609
▁쓰이	-11.561
사업은	-11.5615
▁뒤에서	-11.5615
들로부터	-11.5617
▁개선에	-11.5619
▁형제들	-11.5621
▁부응	-11.5623
▁범죄를	-11.5623
▁서핑	-11.5631
▁그러게	-11.5635
▁상태에	-11.5636
▁마련된	-11.564
▁편입	-11.5642
▁자지	-11.5648
▁동의한다	-11.5649
▁반영한	-11.5651
▁날려	-11.5654
▁행동은	-11.5655
▁하나야	-11.5656
대학원	-11.5663
위한	-11.5663
▁대신해	-11.5664
▁수호	-11.5668
▁관람	-11.5668
▁처한	-11.5669
▁여행에서	-11.567
▁잘되고	-11.5673
▁언젠가는	-11.5675
▁네티즌	-11.5676
동을	-11.5678
법안	-11.568
k	-11.5682
고자	-11.5685
▁이야기해	-11.5693
▁이때	-11.5696
▁w	-11.5697
▁적절	-11.5698
▁내리는	-11.5698
▁사수	-11.57
▁변하는	-11.5705
▁훈련에	-11.5706
▁같다고	-11.5708
▁권유	-11.571
▁뼈	-11.5712
▁이양	-11.5715
▁198	-11.5717
보려고	-11.572
▁일본이	-11.572
▁제공해	-11.572
▁다가가는	-11.5723
▁부끄러	-11.5725
청장	-11.573
▁부르지	-11.5731
▁타입	-11.5732
아야	-11.5732
치기	-11.5732
▁연애를	-11.5733
▁기존에	-11.5734
▁원고	-11.5736
▁중심에	-11.5737
▁지인	-11.574
수입	-11.5742
는데도	-11.5746
▁신고가	-11.5748
us	-11.5754
▁우울	-11.5754
이긴	-11.576
훈은	-11.576
▁성공한	-11.5763
창원	-11.5766
▁헤어지면	-11.5771
한국은	-11.5772
▁달라지	-11.5774
만큼은	-11.5774
▁기준에	-11.5775
▁민간인	-11.5778
▁도발에	-11.5778
▁사용하	-11.578
이달	-11.5781
▁거면	-11.5781
▁불안한	-11.5783
▁언니	-11.5784
▁여가	-11.5787
▁친구로	-11.5787
▁결정하는	-11.5798
▁고민을	-11.5799
▁하나다	-11.5799
방을	-11.5802
▁복제	-11.5802
▁말들	-11.5803
▁바가	-11.5803
▁성장과	-11.5804
▁경찰관이	-11.5805
▁무엇에	-11.5814
▁공유할	-11.582
당은	-11.5826
김경	-11.5828
▁싶어하는	-11.5831
▁유입되	-11.5832
액이	-11.5836
▁피자가	-11.5838
▁키스	-11.5847
하는거	-11.585
▁급락	-11.586
▁자랑	-11.5863
으러	-11.5865
▁인생의	-11.5866
▁지역으로	-11.5869
▁고객과	-11.5869
자녀	-11.5871
인만큼	-11.5878
▁감정의	-11.5882
▁힘들었을	-11.5883
▁제작한	-11.5885
지면	-11.589
▁춘천	-11.5893
▁관객	-11.5894
▁시점이	-11.5897
수의	-11.5898
트로	-11.5898
▁유지하	-11.59
▁결과는	-11.5901
▁스포츠에	-11.5903
▁잘못인	-11.5903
전공	-11.5907
▁없으	-11.5913
▁판매가	-11.5913
각을	-11.5913
수와	-11.5915
주겠다	-11.5929
▁시세	-11.5931
▁하자고	-11.5932
확	-11.5933
▁선택하	-11.5935
▁발표가	-11.5936
낸다	-11.5938
법으로	-11.5939
대미	-11.5941
▁기업과	-11.5941
▁해석을	-11.5943
▁달성하	-11.5953
▁가입한	-11.5954
▁적용하	-11.5958
▁반박	-11.5963
부지	-11.5965
▁했으며	-11.5968
▁결정한	-11.5972
▁모색하	-11.5972
▁됐고	-11.5977
▁h	-11.5979
하느냐	-11.598
공항	-11.598
▁민주당은	-11.5983
▁조율	-11.5985
▁오리	-11.5986
제작	-11.5988
▁정서	-11.5991
▁다행이	-11.5994
▁구별	-11.5994
▁지적한	-11.5994
▁주어진	-11.5995
▁취득	-11.5995
▁약속이	-11.6002
색이	-11.6006
됐으면	-11.6006
▁성장에	-11.6009
▁표준	-11.6011
양의	-11.6015
▁대회의	-11.6017
계속	-11.6018
호의	-11.6018
하든	-11.6019
▁양도	-11.602
단위	-11.6021
▁종업원	-11.6023
호를	-11.6025
▁접근해	-11.6031
▁이상형이	-11.6031
▁주재하	-11.6034
권력	-11.6038
감히	-11.6049
▁군대에	-11.6056
건의	-11.6071
연구소장	-11.6071
▁연루	-11.6078
▁인용	-11.6078
▁이자	-11.608
▁박종	-11.6081
기보다	-11.6082
총리	-11.6084
류현진	-11.6088
됨	-11.6089
포럼	-11.6093
났	-11.6094
▁산책하	-11.6095
급으로	-11.6107
▁고립	-11.6109
▁리더	-11.6109
▁살이야	-11.6111
▁위험에	-11.6113
▁요즘은	-11.6116
▁보람	-11.6117
소송	-11.6118
리아	-11.6119
▁법원이	-11.6121
로선	-11.6122
▁교원	-11.6122
▁맘이	-11.6124
아버지	-11.6124
▁사람이야	-11.6125
▁신기	-11.6128
▁방안이	-11.6128
▁드론	-11.6128
테러	-11.6129
하기는	-11.6129
▁침묵	-11.6131
▁바느질	-11.6131
▁흘렀네	-11.6133
▁독점	-11.6135
펜	-11.614
본부장	-11.6142
▁해고	-11.6144
▁발생해	-11.6148
Hey	-11.6151
봅시다	-11.6151
핀	-11.6152
라면서도	-11.6155
리조트	-11.6157
굴	-11.6157
떡	-11.6158
둥	-11.6158
낮	-11.616
ᅲᅲ	-11.616
b	-11.6161
버렸다	-11.6161
공화국	-11.6161
과학기술	-11.6161
찍	-11.6161
묵	-11.6161
면세점	-11.6162
투쟁	-11.6162
농협은행	-11.6162
털	-11.6162
▁지금까지는	-11.6162
술을	-11.6164
기재부	-11.6164
노무현	-11.6164
▁이영	-11.6164
뜨	-11.6165
금융당국	-11.6166
홈	-11.6166
북핵	-11.6166
당연히	-11.6167
당분간	-11.6167
마케팅	-11.6167
구체적인	-11.6167
연습	-11.6167
바른정당	-11.6167
브라질	-11.6167
꼭	-11.6168
합병	-11.6168
카페	-11.6168
그럴	-11.6168
프랑스	-11.6169
매매	-11.6171
외환	-11.6172
협약	-11.6173
범행	-11.6176
이름은	-11.6177
▁인물이	-11.6178
설계	-11.6179
특수	-11.6179
경쟁력	-11.6179
▁베이스	-11.6181
▁비자	-11.6182
채용	-11.6183
유출	-11.6184
▁출전하	-11.6184
▁나쁘	-11.6187
▁스파게티	-11.6188
▁빠	-11.6188
박지원	-11.6188
여름	-11.6195
전남	-11.6195
▁심경	-11.6197
방문	-11.6202
원래	-11.6205
▁고집	-11.6206
▁매달	-11.6208
▁경향	-11.6209
중단	-11.6212
▁우선순위	-11.6214
▁서울의	-11.6215
▁하와이	-11.6215
네가	-11.6215
결제	-11.6216
▁없을까	-11.6216
률을	-11.6223
▁시도하	-11.6223
총회	-11.6223
▁헤어지자	-11.6226
▁잡히	-11.6227
▁세미나	-11.6228
선수들이	-11.6229
공개	-11.6234
▁퇴근하	-11.6236
▁경쟁자	-11.6238
▁구멍	-11.6242
▁잡았	-11.6242
렴	-11.6243
이래	-11.6248
양측	-11.6248
▁결혼은	-11.6251
▁헬스	-11.6253
▁집중해	-11.6256
▁은폐	-11.6256
현재까지	-11.6258
줘서	-11.6259
김동	-11.6259
▁힘드	-11.6259
▁없는지	-11.626
보안	-11.6262
이들	-11.6262
▁운동으로	-11.6262
▁탑승	-11.6262
▁도모	-11.6263
▁사회공헌	-11.6263
럽	-11.6264
▁나서는	-11.6265
▁결국은	-11.6266
▁억지	-11.6266
▁읽었	-11.6266
대화	-11.6267
▁획기적	-11.6269
▁신세계	-11.627
▁시나리오	-11.627
▁어려웠	-11.6272
▁당과	-11.6272
▁부럽	-11.6272
금융위	-11.6273
▁폭넓	-11.6273
처음에	-11.6274
잖아	-11.6275
픈	-11.6276
그녀	-11.6276
▁했다면	-11.6276
▁준비하기	-11.6277
▁응급	-11.6278
▁견뎌	-11.6279
▁상속	-11.628
▁장담	-11.6281
▁무력	-11.6281
해달라고	-11.6282
▁떠났	-11.6282
▁천안	-11.6283
▁찰리	-11.6283
▁장례	-11.6285
CC	-11.6285
나게	-11.6286
석을	-11.6286
▁운명이	-11.6286
릿	-11.6287
못한	-11.6288
넷	-11.6288
임대	-11.6288
갔지만	-11.6289
▁취약	-11.629
지검	-11.629
할수록	-11.6291
▁아웃	-11.6291
덴	-11.6291
▁고마운	-11.6292
▁백과사전	-11.6292
▁선착순	-11.6292
▁춥지	-11.6292
▁hbu	-11.6292
▁usa	-11.6292
▁갔는데	-11.6292
▁건넸다	-11.6292
▁걷다	-11.6292
▁과태료	-11.6292
▁국무부	-11.6292
▁굵직	-11.6292
▁끔찍하다	-11.6292
▁낙하산	-11.6292
▁넓혀	-11.6292
▁놀랐	-11.6292
▁뜯어	-11.6292
▁맞췄다	-11.6292
▁미얀마	-11.6292
▁보고싶다	-11.6292
▁빼빼로	-11.6292
▁뽑기	-11.6292
▁썼어	-11.6292
▁알렉스	-11.6292
▁애로사항	-11.6292
▁어두운	-11.6292
▁웃을	-11.6292
▁월마트	-11.6292
▁이스라엘	-11.6292
▁인스타그램	-11.6292
▁일찌감치	-11.6292
▁지켰다	-11.6292
▁턱수염	-11.6292
▁포지션	-11.6292
▁플래시	-11.6292
▁환경영향평가	-11.6292
▁힘듭니다	-11.6292
고싶은데	-11.6292
껄	-11.6292
▁꽃다발	-11.6292
▁명확한	-11.6292
▁스터디	-11.6292
▁유격수	-11.6292
▁챔피언스리그	-11.6292
▁패러다임	-11.6292
터미널	-11.6292
▁문화체육관광부	-11.6292
▁공산당	-11.6292
▁목격자	-11.6292
▁유난히	-11.6292
▁심각성	-11.6292
▁엘비스	-11.6292
▁알다가도	-11.6292
▁외로움	-11.6292
▁다운로드	-11.6292
▁지방자치단체	-11.6292
▁미래에셋	-11.6292
▁소득공제	-11.6292
▁트레이너	-11.6292
▁혼란스러워	-11.6292
▁악영향	-11.6292
▁능동적	-11.6292
▁지날수록	-11.6292
▁담겨	-11.6292
▁함부로	-11.6292
▁광복절	-11.6292
▁아까워	-11.6292
▁힘써	-11.6292
▁경기침체	-11.6292
▁흥미롭구나	-11.6292
▁불균형	-11.6292
▁아름다움	-11.6292
판타지	-11.6292
▁위스키	-11.6292
협동조합	-11.6292
▁로버트	-11.6292
▁역사교과서	-11.6292
▁모욕	-11.6292
▁인쇄	-11.6292
체를	-11.6292
▁놀라워	-11.6292
▁여느	-11.6292
▁침투	-11.6292
▁먹으려고	-11.6293
▁만료	-11.6293
▁기탁	-11.6293
▁페북	-11.6293
▁터뜨리	-11.6293
▁부탁드린다	-11.6293
▁대법관	-11.6293
▁중기	-11.6293
틸리	-11.6293
▁눈빛	-11.6293
▁검정색	-11.6293
▁무모	-11.6293
▁온갖	-11.6293
▁쾌적	-11.6294
▁똑같아	-11.6294
▁출구	-11.6294
▁드러난	-11.6294
▁앞머리	-11.6294
▁성찰	-11.6294
▁인정받았다	-11.6294
▁양해를	-11.6294
▁소련	-11.6294
▁키웠어	-11.6294
▁맞는걸까	-11.6294
▁까먹	-11.6294
▁나름대로	-11.6294
▁운반	-11.6294
▁밝혀졌다	-11.6294
▁다닐	-11.6294
슬러	-11.6294
▁집계됐다	-11.6294
▁계류	-11.6295
▁빨간색이야	-11.6295
▁하루빨리	-11.6295
환자	-11.6295
▁보일러	-11.6295
▁바람직하지	-11.6295
▁가져왔다	-11.6295
▁나혼자	-11.6295
▁조급해	-11.6295
▁버디	-11.6295
▁단합	-11.6295
▁엇갈리	-11.6295
▁설교	-11.6295
▁정쟁	-11.6295
▁투입된	-11.6295
▁친근	-11.6295
▁상한가	-11.6296
▁정치자금	-11.6296
▁출루	-11.6296
▁병역	-11.6296
▁장착	-11.6296
▁과열	-11.6296
▁가처분	-11.6296
▁학업	-11.6296
▁숙였다	-11.6296
▁80%	-11.6297
▁당당히	-11.6297
▁받았습니다	-11.6297
▁차분하게	-11.6297
▁코트	-11.6297
▁부추기	-11.6297
▁2022	-11.6297
▁섬유	-11.6297
▁않냐	-11.6297
▁대신증권	-11.6297
▁예정이며	-11.6297
▁한국거래소	-11.6297
▁환영한다	-11.6298
▁동해안	-11.6298
▁후퇴	-11.6298
▁돌아가신	-11.6298
▁일상생활	-11.6299
▁끝낼	-11.6299
▁요청했고	-11.6299
▁공부하는	-11.6299
정상	-11.6299
▁모멘텀	-11.63
▁코칭스태프	-11.63
▁터뜨렸다	-11.63
▁국무회의	-11.63
▁유관기관	-11.63
▁전망된다	-11.63
▁바쁘거나	-11.6301
전망	-11.6301
▁돌아갔다	-11.6301
▁용돈	-11.6301
▁친구들이랑	-11.6301
▁부츠	-11.6301
▁학계	-11.6301
▁습관이에요	-11.6302
▁질타	-11.6302
▁읽으면서	-11.6302
▁경비원	-11.6302
▁선정됐다	-11.6303
▁자랐어	-11.6303
▁무너져	-11.6303
▁선보였다	-11.6303
▁손잡	-11.6303
▁배웠다	-11.6303
90	-11.6304
▁간절히	-11.6304
▁나눈	-11.6305
▁간판	-11.6305
▁목동	-11.6306
▁선포	-11.6306
▁세웠다	-11.6306
▁증오	-11.6306
▁출근길	-11.6306
▁영구	-11.6306
▁들어온다	-11.6307
▁착수했다	-11.6307
▁공수처	-11.6307
▁돌아다니	-11.6307
▁마신다	-11.6307
▁겪었다	-11.6307
▁적금	-11.6307
▁조망	-11.6307
▁흐리	-11.6308
▁1500	-11.6308
▁일간지	-11.6308
▁완벽하게	-11.6309
▁본래	-11.6309
▁엔진	-11.631
▁외화	-11.631
▁응모	-11.631
자신의	-11.631
▁끈다	-11.631
행사에	-11.631
▁국비	-11.631
▁웬	-11.631
▁세가지	-11.6311
▁재미있는거	-11.6311
▁들으면	-11.6311
LS	-11.6311
▁소매점	-11.6311
▁군산	-11.6311
▁주유소에서	-11.6311
▁읽었다	-11.6312
▁다녀오	-11.6312
▁위해서라도	-11.6312
▁휴식이	-11.6313
▁걸렸다	-11.6313
▁기술개발	-11.6314
▁탓이다	-11.6314
▁금연	-11.6314
▁턱	-11.6315
▁태권도	-11.6315
▁티켓	-11.6315
▁유로존	-11.6315
▁느꼈다	-11.6316
▁나쁘다	-11.6316
▁대리인	-11.6316
웠어	-11.6316
▁빠졌어	-11.6316
▁투자유치	-11.6316
▁학교폭력	-11.6317
▁이대호	-11.6317
▁입맛	-11.6317
▁이끈	-11.6317
▁떠났어	-11.6317
▁칭찬했다	-11.6318
▁듯하다	-11.6318
▁중앙은행	-11.6318
▁강습	-11.6318
▁비박계	-11.6318
▁키워드	-11.6319
▁의료진	-11.6319
▁연내	-11.6319
▁예전에	-11.6319
▁갈거야	-11.632
▁어렵지만	-11.6321
▁기다렸다	-11.6321
▁지울	-11.6321
▁결승전	-11.6322
▁가르	-11.6322
▁방식에	-11.6322
▁다양하게	-11.6322
▁자랑하는	-11.6324
▁밤새	-11.6324
▁특별히	-11.6325
▁여신	-11.6325
▁도덕성	-11.6325
▁입사	-11.6325
▁향했다	-11.6325
▁마시지	-11.6325
▁불편해	-11.6326
▁전통적인	-11.6327
▁연구개발	-11.6327
▁연동	-11.6327
▁막혀	-11.6328
▁불과해	-11.6328
▁줌	-11.633
▁멀어지	-11.633
▁블랙	-11.633
▁고용노동부	-11.633
▁FIFA	-11.633
▁끔찍한	-11.633
▁이승엽	-11.633
지속	-11.6331
▁석유화학	-11.6331
▁중부지방	-11.6331
▁동성애	-11.6331
▁썩	-11.6331
▁인적	-11.6331
▁싶었어	-11.6331
▁우울증	-11.6331
▁던지는	-11.6331
▁보여준다	-11.6332
▁결혼해서	-11.6332
▁크니	-11.6332
▁아님	-11.6332
▁성금	-11.6332
▁만나러	-11.6333
▁반해	-11.6333
▁금융상품	-11.6334
▁제시하는	-11.6335
▁온도	-11.6335
▁잠수함	-11.6335
▁조그	-11.6336
▁불평등	-11.6336
▁해결될	-11.6337
▁경제정책	-11.6337
▁형제들과	-11.6338
▁지방세	-11.6339
비용이	-11.6339
▁끝내기	-11.6339
▁팝	-11.6339
▁화장하는	-11.634
42	-11.6341
▁펜	-11.6341
▁차가워	-11.6341
▁결의안	-11.6342
▁경쟁률	-11.6342
31	-11.6343
금융그룹	-11.6343
▁그러니	-11.6343
▁외출	-11.6344
▁힘든데	-11.6344
▁제출했다	-11.6344
▁이번주에	-11.6345
▁크리스	-11.6345
▁협의체	-11.6346
▁소원	-11.6346
▁굿	-11.6346
▁사우디	-11.6346
▁이종걸	-11.6346
▁이른다	-11.6346
▁가져온	-11.6346
▁미세	-11.6346
▁상점	-11.6346
▁OK	-11.6347
▁사라질	-11.6347
▁화합	-11.6347
▁멋지군	-11.6347
▁먹자	-11.6347
▁학문	-11.6347
▁혐의에	-11.6347
▁하락세를	-11.6348
▁줄었다	-11.6349
▁박정희	-11.6349
▁다행히	-11.635
▁똑같이	-11.635
▁성장세를	-11.635
▁아쉬움이	-11.6351
▁문화재	-11.6353
▁강화하겠다	-11.6353
▁바꾸지	-11.6353
음에	-11.6353
▁의존도	-11.6354
수원	-11.6354
▁새우	-11.6355
▁활	-11.6355
▁답답하다	-11.6355
▁고려했다	-11.6356
▁임용	-11.6357
▁썸인데	-11.6357
▁총액	-11.6359
▁창구	-11.6359
▁런던에서	-11.636
▁무대에	-11.6361
▁동문	-11.6361
▁연평도	-11.6361
▁케이스	-11.6362
▁노동신문	-11.6362
▁삼성그룹	-11.6362
▁쉬어도	-11.6365
▁중견기업	-11.6365
▁고려하고	-11.6366
▁취한다	-11.6367
▁태우	-11.6367
▁모시	-11.6367
▁시작된다	-11.6368
▁김씨에게	-11.6369
▁지적이다	-11.6371
▁변함	-11.6372
▁채권단	-11.6372
▁남사친이	-11.6372
▁주장한다	-11.6375
▁조업	-11.6376
▁조회	-11.6376
▁리드	-11.6376
▁게이트	-11.6377
▁인지도	-11.6378
▁마시기	-11.6378
▁김성근	-11.6379
▁돌아오는	-11.638
▁언제까지	-11.6381
▁뛰어넘는	-11.6381
현동	-11.6382
▁모아야	-11.6385
▁상대에게	-11.6385
▁셈	-11.6386
▁동포	-11.6386
▁지도자들	-11.6387
▁들어가서	-11.6387
씨도	-11.6387
▁v	-11.6388
▁바이어	-11.6388
▁지어	-11.6388
그리스	-11.6389
▁유연	-11.6391
▁불필요	-11.6392
대우	-11.6392
▁밭	-11.6393
▁해야할까	-11.6393
▁김광현	-11.6393
▁중독	-11.6393
▁분들에게	-11.6394
▁기대하지	-11.6394
사유	-11.6394
▁됐네	-11.6395
▁지켜본	-11.6396
▁악몽	-11.6397
▁타이밍이	-11.6397
▁일체	-11.6398
▁적시	-11.6398
▁빠를	-11.6399
▁지금이라도	-11.6401
▁인양	-11.6402
▁신동	-11.6402
AR	-11.6402
▁참여했다	-11.6403
남매	-11.6404
현장에	-11.6405
▁국무총리가	-11.6406
▁하이킹과	-11.6407
▁컨	-11.6407
▁본적	-11.6407
▁천사	-11.6408
▁윈	-11.6411
▁되니까	-11.6411
▁치기	-11.6412
▁탈북자	-11.6412
▁사임	-11.6412
x	-11.6412
▁하겠습니다	-11.6412
▁질환	-11.6412
특별위원회	-11.6413
▁친절한	-11.6414
▁제품이	-11.6414
계약을	-11.6414
▁연애가	-11.6414
▁위장	-11.6414
적이	-11.6415
▁대중화	-11.6415
▁"19	-11.6416
▁객	-11.6416
인데도	-11.6416
▁머리카락을	-11.6416
▁차량이	-11.6418
▁감상	-11.6418
▁드리고	-11.6422
▁사격	-11.6423
클린	-11.6423
▁무상	-11.6423
▁해산	-11.6423
▁공화국	-11.6424
▁패스	-11.6424
▁농협은행	-11.6425
▁유아	-11.6427
▁지방정부	-11.6428
부스	-11.6428
▁포기하고	-11.6429
▁우월	-11.6429
▁인정받고	-11.6429
▁이사했다	-11.6429
▁처지	-11.643
▁버렸다	-11.643
▁물질이	-11.6434
조성	-11.6435
▁롤	-11.6436
▁수준이다	-11.6437
▁몰리	-11.6439
세상	-11.644
▁정수	-11.6442
▁행복은	-11.6443
▁즐기며	-11.6443
▁언론이	-11.6444
모임	-11.6445
▁이외에	-11.6445
기위해	-11.6445
▁사실관계	-11.6446
▁바라보는	-11.6447
▁성공했다	-11.6447
▁기초연금	-11.6449
▁세월	-11.645
▁실시하고	-11.6451
▁다가왔	-11.6451
직장	-11.6451
▁대형주	-11.6452
▁냄새가	-11.6452
▁불어	-11.6452
▁드시	-11.6453
▁바라보고	-11.6453
▁설명회	-11.6457
▁동맹	-11.6458
지진	-11.6459
▁페이지	-11.646
▁어렵고	-11.646
▁가입자	-11.6461
▁생명과	-11.6464
▁42	-11.6466
▁해설	-11.6466
적이다	-11.6467
▁펼치고	-11.6468
▁이웃들	-11.6469
▁국민은행	-11.6469
▁감사한다	-11.6469
회사가	-11.6471
▁요리법	-11.6472
▁현안에	-11.6473
ri	-11.6473
워드	-11.6473
▁표현했다	-11.6473
정우	-11.6475
▁확실하다	-11.6475
▁해주기	-11.6475
▁영업이익은	-11.6476
▁회원국	-11.6477
▁성의	-11.6479
▁성공하고	-11.6481
▁족	-11.6481
▁감성	-11.6482
금융투자	-11.6482
▁기울	-11.6482
광장	-11.6483
▁위력	-11.6486
▁해결하는	-11.6487
▁양식	-11.6488
▁빠르고	-11.6489
외부	-11.649
▁선택권	-11.649
▁정리하고	-11.6492
▁사랑한다면	-11.6493
▁정우	-11.6495
▁성주	-11.6496
▁전월	-11.6497
아직도	-11.6497
전과	-11.6497
▁이슈가	-11.6498
▁중앙정부	-11.6498
▁과학기술	-11.6498
▁밝혀지	-11.6499
▁법안이	-11.6501
방송을	-11.6503
▁연맹	-11.6503
▁센	-11.6504
▁서양	-11.6504
▁받아들여야	-11.6505
▁상관없어	-11.6507
▁김용	-11.6509
▁회복하고	-11.6509
▁식물을	-11.651
되기를	-11.6511
자재	-11.6512
일본이	-11.6512
▁명예를	-11.6513
▁해준	-11.6515
▁버린	-11.6515
▁바뀌어	-11.6515
▁모인	-11.6516
▁적게	-11.6517
▁농장을	-11.6517
▁벌레들	-11.6517
▁단위로	-11.6517
수당	-11.6519
▁김재	-11.6521
▁번호를	-11.6521
▁풀어주	-11.6522
▁하나은행	-11.6522
▁되지만	-11.6523
보여	-11.6524
▁솔	-11.6528
전은	-11.6528
▁시진	-11.6528
▁일각에서	-11.6529
▁고치는	-11.6529
거죠	-11.6529
인들이	-11.653
▁잠자	-11.653
곳에	-11.6532
▁유지하기	-11.6533
▁현황을	-11.6534
프로	-11.6538
▁만나도	-11.654
▁허리케인이	-11.654
시위	-11.654
▁방문했다	-11.6543
▁단점	-11.6545
▁마련에	-11.6547
▁발표하고	-11.6548
▁류현진은	-11.655
해라	-11.655
▁준우승	-11.6554
▁거짓말이	-11.6554
▁특이	-11.6555
▁요구한다	-11.6555
▁한국어	-11.6556
▁인정한	-11.6556
▁분권	-11.6558
▁엘	-11.6559
식에	-11.656
ton	-11.6563
▁엄마를	-11.6564
▁"7	-11.6568
▁헌법에	-11.6569
▁평가받	-11.657
▁애인	-11.657
구장에서	-11.657
▁맞으면	-11.6571
▁압	-11.6571
▁대수	-11.6572
▁곳이다	-11.6572
▁관계자도	-11.6575
공간	-11.6577
▁웅	-11.6577
▁거다	-11.6578
▁있을까요	-11.6581
▁극도	-11.6582
대는	-11.6583
▁없었고	-11.6587
▁좋겠지	-11.6589
▁발로	-11.659
▁좋았을	-11.6592
▁이모씨	-11.6596
▁공부만	-11.6597
▁집중력	-11.6598
책임자	-11.6598
▁서민들	-11.6599
▁남북한	-11.66
▁열기	-11.6603
▁콘서트를	-11.6607
▁기기	-11.6608
학년이	-11.661
▁좋아했던	-11.6612
▁계시	-11.6612
▁이어져	-11.6614
▁해오	-11.6615
▁지니	-11.6615
▁교류를	-11.6617
▁회수	-11.6618
▁참석하는	-11.6619
▁연락은	-11.6621
정책에	-11.6625
▁믿는	-11.6626
▁내부에	-11.6627
기업은행	-11.6628
▁안될	-11.6629
▁민주적	-11.663
▁8000	-11.6631
▁생일은	-11.6631
▁세수	-11.6632
▁대법원장	-11.6634
▁고리	-11.6638
▁나에	-11.664
▁종교가	-11.6646
▁특별법	-11.6647
▁재활용	-11.6647
▁낮다	-11.6649
▁싱	-11.6649
레이트	-11.665
▁강화에	-11.665
▁도착한	-11.6655
▁좋아해도	-11.6655
기호	-11.6656
▁운을	-11.6659
심하게	-11.6664
▁선수와	-11.6665
▁세상은	-11.6665
▁썸인가	-11.6665
▁본격화	-11.6668
상으로	-11.6668
▁법원의	-11.6668
▁하루도	-11.667
였나	-11.6672
곳을	-11.6673
▁때에는	-11.6676
▁본격	-11.6676
이익	-11.6679
▁방위	-11.6682
▁입어	-11.6682
▁시비	-11.6683
▁실시하	-11.6685
까요	-11.6687
직원들	-11.6688
▁말까	-11.6688
▁거주	-11.6689
▁소유자	-11.6689
▁채로	-11.6689
▁했어요	-11.669
▁"6	-11.6693
단이	-11.6694
▁이들에게	-11.6695
▁추진력	-11.6697
▁비서	-11.6698
▁""11	-11.6698
▁미소	-11.6711
편의	-11.6712
▁쪽에	-11.6712
▁규모로	-11.6712
▁공로	-11.6714
▁들여다	-11.6714
▁R	-11.6714
이밖에	-11.6715
액을	-11.6715
났어	-11.6719
갖지	-11.6719
▁회복되	-11.6719
▁짓고	-11.6723
여대	-11.6725
▁학생을	-11.6726
▁놀았	-11.673
▁이루고	-11.673
▁유권자	-11.6731
원하니	-11.6732
못	-11.6736
▁신청자	-11.6737
▁형이	-11.6738
▁성숙	-11.6745
▁이닝	-11.6747
▁와인을	-11.6752
▁하려면	-11.6753
▁지식을	-11.6753
순위로	-11.6758
말을	-11.6758
▁전신	-11.6758
▁발이	-11.6759
주에서	-11.676
세의	-11.676
▁고백해	-11.6761
▁풀어야	-11.6764
▁확인되	-11.6764
양이	-11.6764
▁실질	-11.6766
▁했나봐	-11.6766
▁흡수	-11.6768
▁언론은	-11.6771
하겠지만	-11.6772
▁보이기	-11.6773
▁설치된	-11.6775
▁문제다	-11.6778
▁받았고	-11.678
▁친해	-11.6783
▁작	-11.6785
팬들	-11.6792
▁상식	-11.6794
▁제기하	-11.6801
▁갑	-11.6803
▁최초의	-11.6804
▁생각해봐	-11.6806
호텔에서	-11.6807
▁요청하	-11.6812
팀의	-11.6814
▁""9	-11.6815
▁평가해	-11.6817
이었으면	-11.6818
▁되며	-11.6818
▁범죄의	-11.6823
▁그래야	-11.6823
▁애기	-11.6823
▁결정되	-11.6826
▁ca	-11.6834
▁노력하면	-11.6834
▁주저	-11.6837
▁수학여행	-11.6839
▁상해	-11.684
▁배경에	-11.6841
위원들	-11.6842
▁설명이	-11.6844
▁부러	-11.6844
▁심심	-11.6846
▁선택해	-11.6852
▁타석에	-11.6857
▁마련하고	-11.6857
▁글이	-11.6859
▁세상의	-11.6859
▁시각을	-11.6862
▁측과	-11.6865
활동에	-11.6866
쪽으로	-11.6868
▁동시	-11.6869
티스	-11.6869
▁말씀이	-11.6877
산을	-11.6877
▁국가적	-11.6878
▁예술에	-11.6879
▁급증하	-11.6881
▁시가	-11.6887
언론	-11.6889
al	-11.6891
교회	-11.6899
▁인상이	-11.6899
▁돕기	-11.69
소비자	-11.6908
오네	-11.6913
땅	-11.6913
기금	-11.6915
요구	-11.6915
답을	-11.6917
▁간단하	-11.6918
서라도	-11.6927
▁기대감	-11.6928
▁부진에	-11.6928
세에	-11.6935
▁박스	-11.6936
▁이제야	-11.6937
▁전하고	-11.6944
▁발전이	-11.6945
▁누워	-11.6946
▁삼성전자는	-11.6947
▁간접적	-11.6951
▁국가에서	-11.6953
만해도	-11.6954
▁75	-11.6955
▁신의	-11.6959
▁선정해	-11.696
▁구단의	-11.696
우면	-11.6962
▁끝내는	-11.6965
후보자	-11.6965
▁정책으로	-11.6966
▁학대	-11.6967
어린	-11.6968
▁연애에	-11.6968
▁해왔	-11.697
▁이산가족	-11.6976
▁전통적	-11.6979
▁시간이야	-11.698
▁아르	-11.6982
▁날인	-11.6983
▁제조업체	-11.6984
▁궁금하네	-11.6985
언이	-11.6986
겐	-11.6986
▁무책임	-11.6991
사람이	-11.6993
▁피하고	-11.6994
통상	-11.6994
▁모은	-11.6999
우리투자증권	-11.7008
▁지역은	-11.7009
▁상반기에	-11.701
▁드려	-11.7012
▁남자와	-11.7013
▁공무원의	-11.7014
▁바로잡	-11.7014
가정	-11.7019
▁벌고	-11.7022
▁기다려야	-11.7023
회에서	-11.7025
▁끊어	-11.7025
▁배상	-11.7033
보기	-11.7041
▁있었다고	-11.7042
▁남부	-11.7042
▁길은	-11.7043
▁추억을	-11.7043
▁미안한	-11.7044
▁준비는	-11.7045
듣는거야	-11.7046
▁줄어	-11.7048
직업	-11.7051
번이	-11.7052
▁결정적	-11.7052
레스	-11.7054
ie	-11.7054
▁심도	-11.7055
▁충돌이	-11.7056
▁평화의	-11.706
빵	-11.7063
▁입장에	-11.7065
▁현실의	-11.7066
▁시공	-11.7067
▁반에서	-11.7069
▁직장인	-11.707
▁오일	-11.7071
구장	-11.7073
▁프로그램이	-11.708
▁수상한	-11.7081
▁놀기	-11.7081
▁탁월	-11.7083
▁길다	-11.7084
임금	-11.7084
▁음악에	-11.7089
려나	-11.7092
900	-11.7092
▁유권자들	-11.7093
부처	-11.7097
▁남성의	-11.7097
▁여배우	-11.7099
▁위원회	-11.7102
▁높지	-11.7104
▁사업과	-11.7107
▁유의해	-11.7109
▁나날	-11.7109
▁확대하고	-11.7117
받는	-11.7119
54	-11.7127
▁졸업한	-11.7135
▁날아	-11.7136
▁시즌이	-11.7142
▁대화하는	-11.7146
▁졌다	-11.7148
▁임원들	-11.7151
▁시골에	-11.7152
하실	-11.7158
▁제도적	-11.716
과장	-11.7163
▁손이	-11.7166
인증	-11.7167
▁않더라	-11.7169
▁마감	-11.7171
▁연구소	-11.7179
▁주사	-11.7185
해야한다	-11.7186
교육을	-11.7189
▁""30	-11.7192
▁약한	-11.7193
▁색깔이	-11.7194
느	-11.7196
▁저하	-11.7197
▁의견도	-11.7199
개소	-11.72
▁나간다	-11.72
▁생물	-11.7201
▁시도해	-11.7209
올라	-11.7209
기술을	-11.721
독한	-11.7211
▁짝사랑은	-11.7218
감독님	-11.7218
센터는	-11.7219
▁목소리에	-11.7224
리퍼	-11.7224
▁깎아	-11.7226
하는걸	-11.7227
▁서둘러	-11.7228
미처	-11.7235
장에게	-11.7235
▁신한	-11.7237
▁청소하는	-11.7239
▁가입할	-11.724
셨나	-11.7246
렸어	-11.7247
▁말해야	-11.7248
▁180	-11.7251
내지	-11.7251
▁수강	-11.7253
이야기	-11.7254
음악	-11.7255
▁불안감	-11.7258
▁더해	-11.7276
그렇다	-11.7276
부로	-11.7278
민간	-11.7279
▁군이	-11.728
우스	-11.728
론이	-11.7281
장님	-11.7286
▁되겠	-11.7291
회사에서	-11.7291
▁술이	-11.7294
▁표적	-11.7294
나마	-11.7296
증세	-11.7298
재계	-11.7299
▁시작했	-11.7305
▁내야	-11.7306
▁고양	-11.7306
있었어	-11.7306
스크	-11.7307
▁사용되	-11.7308
▁술에	-11.7311
▁너희	-11.7312
우는	-11.7314
과정	-11.7315
▁넘겨	-11.7316
여당	-11.7316
더라면	-11.7318
▁발송	-11.7319
▁느리	-11.7321
▁지속해	-11.7326
▁잊으	-11.7328
▁투자하는	-11.7329
▁부분도	-11.7334
▁말자	-11.7338
▁입찰	-11.7339
▁만들어지	-11.734
행동	-11.7342
▁유의	-11.7342
▁보험사	-11.7346
▁지향	-11.7349
▁67	-11.7351
▁사무국	-11.7354
▁벌레	-11.7357
시의회	-11.7359
▁큰일	-11.7359
인가요	-11.7365
▁때려	-11.7371
상이	-11.7371
지역의	-11.7371
▁대회에	-11.7372
것이다	-11.7373
▁여부는	-11.7373
▁56	-11.7375
▁무너	-11.7375
▁몇개	-11.7376
▁휘	-11.738
촉	-11.738
푼	-11.7382
▁살아가는	-11.7385
연합회	-11.7386
▁타자들	-11.7386
▁꼽	-11.7386
▁문명	-11.7388
않아	-11.739
당신	-11.7391
▁변한	-11.7391
MS	-11.7397
해줬으면	-11.74
퉁	-11.7402
궁	-11.7403
▁중소기업에	-11.7403
사이버	-11.7403
올림픽	-11.7403
▁끈	-11.7404
슛	-11.7405
엔터테인먼트	-11.7405
월드컵	-11.7405
녹	-11.7406
▁도와줘	-11.7408
델	-11.7408
윈	-11.7408
수준	-11.7408
사령부	-11.7409
폼	-11.741
갖	-11.741
빅	-11.741
▁여행에	-11.7411
v	-11.7411
f	-11.7411
컨	-11.7411
자치	-11.7411
오승환	-11.7412
셋	-11.7412
Q	-11.7414
섬	-11.7414
조만간	-11.7414
채널	-11.7414
볼넷	-11.7414
옷	-11.7416
올랐다	-11.7416
넥센	-11.7416
국민연금	-11.7416
심지어	-11.7416
겸	-11.7416
김대중	-11.7416
실험	-11.7416
결혼	-11.7417
혜택	-11.7418
300	-11.7418
▁모범	-11.7418
폭발	-11.7419
마련	-11.7419
대생	-11.7419
▁친절하	-11.7419
평균	-11.7421
진짜	-11.7421
지원금	-11.7421
푸드	-11.7422
2014	-11.7422
어머니	-11.7422
▁설치한	-11.7423
경남	-11.7423
단독	-11.7424
▁전념	-11.7424
▁중심이	-11.7425
▁브	-11.7425
현대차	-11.7425
59	-11.7426
영역	-11.7429
장애인	-11.7429
년과	-11.743
환율	-11.743
는걸	-11.743
공천	-11.7431
질환	-11.7431
면접	-11.7432
▁복잡	-11.7434
98	-11.7435
대사	-11.7436
처분	-11.7437
▁묘사	-11.7439
작품	-11.744
▁수백만	-11.744
2016	-11.7442
목표	-11.7442
민주	-11.7443
구매	-11.7444
두산	-11.7445
해놓고	-11.7446
예상	-11.7447
▁하더라	-11.7447
▁재미있	-11.7448
▁강화되	-11.7449
친박	-11.745
보건	-11.745
세력	-11.745
홍보	-11.7451
화로	-11.7452
▁만들지	-11.7453
▁"200	-11.7454
원전	-11.7455
여기서	-11.7455
오후	-11.7456
서로	-11.7457
나야	-11.7458
실패	-11.7459
수영	-11.7461
사태	-11.7464
▁게임으로	-11.7464
마크	-11.7464
재료	-11.7466
▁농민	-11.7466
아트	-11.7468
제대로	-11.7468
세운	-11.747
▁k	-11.747
지난번	-11.7472
발언을	-11.7473
롭	-11.7475
유엔	-11.7476
▁예로	-11.7476
▁사귄	-11.7477
▁붙이	-11.7477
▁학위	-11.7479
이었을	-11.7479
▁칸사스	-11.748
▁되겠지	-11.7481
건데	-11.7483
▁늘리	-11.7484
▁거제	-11.7484
▁시절에	-11.7484
연설	-11.7486
▁내이름	-11.7488
▁크로스	-11.7489
▁말투	-11.7491
집회	-11.7492
류가	-11.7492
▁이상인	-11.7495
▁방사	-11.7496
▁휴일	-11.7496
분양	-11.7497
▁법인세	-11.7498
해주고	-11.7498
▁늘리는	-11.7499
군사	-11.7499
▁산림	-11.75
▁착각	-11.7502
▁치우	-11.7503
▁밑에	-11.7505
▁싸우면	-11.7506
▁하길	-11.7509
▁쏠	-11.7511
쁜	-11.7511
▁개발해	-11.7511
▁찾았	-11.7512
닥	-11.7513
발을	-11.7513
▁똑똑하	-11.7514
▁억제	-11.7514
성명	-11.7514
▁설명해	-11.7516
▁익숙해지	-11.7516
혔	-11.7516
콤	-11.7518
▁어선	-11.752
▁감추	-11.7522
획	-11.7522
▁영동	-11.7524
▁솔직하	-11.7524
▁공익	-11.7525
▁웨이트리스	-11.7526
출사	-11.7527
녕	-11.7528
▁최우수	-11.7529
▁로즈	-11.7529
▁국토	-11.753
직한	-11.753
▁불가능	-11.7531
▁인격	-11.7533
▁경찰관	-11.7533
곱	-11.7534
루를	-11.7535
년생	-11.7539
립니다	-11.7539
▁햇볕	-11.7539
▁입건	-11.754
켄	-11.754
깐	-11.7541
▁느꼈	-11.7541
▁평등	-11.7541
▁Jane	-11.7541
▁지칠	-11.7541
붐	-11.7541
툴	-11.7541
▁소셜	-11.7541
▁Tom	-11.7542
▁겪을	-11.7542
▁닮은	-11.7542
▁베테랑	-11.7542
▁쓰다듬	-11.7542
▁아나운서	-11.7542
▁유나이티드	-11.7542
▁피어싱	-11.7542
LIG	-11.7542
ustin	-11.7542
▁ICT	-11.7542
▁IOC	-11.7542
▁YTN	-11.7542
▁bmw	-11.7542
▁갔어	-11.7542
▁걷고	-11.7542
▁겪으면서	-11.7542
▁경각심	-11.7542
▁고맙게	-11.7542
▁골동품	-11.7542
▁국무장관	-11.7542
▁국조특위	-11.7542
▁금호타이어	-11.7542
▁두드러지	-11.7542
▁따뜻할	-11.7542
▁라오스	-11.7542
▁레시피	-11.7542
▁묶어	-11.7542
▁밀접한	-11.7542
▁벚꽃	-11.7542
▁베이글을	-11.7542
▁살충제	-11.7542
▁삼겹살	-11.7542
▁샀는데	-11.7542
▁스노클링	-11.7542
▁안전보장이사회	-11.7542
▁애틋	-11.7542
▁앨범	-11.7542
▁어긋나	-11.7542
▁옮긴	-11.7542
▁우즈베키스탄	-11.7542
▁유튜브	-11.7542
▁읽지	-11.7542
▁챙긴	-11.7542
▁치렀다	-11.7542
▁침략	-11.7542
▁카타르	-11.7542
▁포괄적	-11.7542
▁피스타치오	-11.7542
▁횟수	-11.7542
▁훔친	-11.7542
경실련	-11.7542
컷	-11.7542
▁공휴일	-11.7542
▁비영리	-11.7542
▁차갑게	-11.7542
▁회상했다	-11.7542
▁상용화	-11.7542
▁카카오톡	-11.7542
손학규	-11.7542
▁가꾸는	-11.7542
▁원내대책회의	-11.7542
▁갑작스런	-11.7542
▁컵케이크	-11.7542
▁예보했다	-11.7542
▁최고경영자	-11.7542
▁MSI	-11.7542
▁RPG	-11.7542
▁알뜰폰	-11.7542
▁잃어버렸어	-11.7542
▁서태지	-11.7542
▁출국금지	-11.7542
▁그릇을	-11.7542
▁답답할	-11.7542
▁피운다	-11.7542
▁부정부패	-11.7542
▁mia	-11.7542
▁제구력	-11.7542
▁동호회	-11.7542
▁악순환	-11.7542
▁김태균	-11.7542
지정학적	-11.7542
▁팬케이크	-11.7542
▁현대중공업	-11.7542
▁IBK	-11.7542
▁익숙해질	-11.7542
▁작곡	-11.7542
▁잇몸	-11.7542
▁선제골	-11.7542
▁미트볼	-11.7542
▁라이벌	-11.7542
▁언덕	-11.7542
▁멋지구나	-11.7542
▁말씀드릴	-11.7542
▁받아들인다	-11.7542
▁유기농	-11.7542
▁가계대출	-11.7542
▁운운하	-11.7542
▁청렴	-11.7542
▁맛나게	-11.7542
▁재가동	-11.7542
▁KTX	-11.7542
▁불명예	-11.7542
▁영업정지	-11.7542
▁재건축	-11.7542
▁식료품점	-11.7542
▁구체화	-11.7542
▁탄압	-11.7542
▁도자기	-11.7542
▁펼쳐진다	-11.7542
▁소나기	-11.7542
▁노릇	-11.7542
▁다양화	-11.7542
▁검은색	-11.7543
▁전화통화	-11.7543
체스터	-11.7543
▁관악	-11.7543
▁보편적	-11.7543
▁의약품	-11.7543
▁왕따	-11.7543
▁진상조사	-11.7543
▁파트너십	-11.7543
▁서커스	-11.7543
▁징후	-11.7543
▁겸허	-11.7543
▁용역	-11.7543
▁양궁	-11.7543
▁까먹었다	-11.7543
잉글랜드	-11.7543
▁편견	-11.7543
▁경기회복	-11.7543
▁얼룩말	-11.7543
▁끌었다	-11.7543
▁가라데	-11.7543
▁매달려	-11.7543
▁담담하	-11.7543
▁내려놓고	-11.7544
▁방문객	-11.7544
▁욕망	-11.7544
▁회색	-11.7544
▁높아졌다	-11.7544
▁잊는다는	-11.7544
▁사무처	-11.7544
▁친해지는	-11.7544
▁경제지표	-11.7544
▁강좌	-11.7544
▁레이더	-11.7544
▁교외	-11.7544
▁갑질	-11.7544
▁재미없어	-11.7544
▁빠질	-11.7544
▁단행	-11.7544
▁선별	-11.7544
스토어	-11.7544
▁폭락	-11.7545
▁감축	-11.7545
▁노란색	-11.7545
▁국가대표	-11.7545
▁부모님께	-11.7545
▁마시면	-11.7545
▁다녀온	-11.7545
▁명칭	-11.7545
▁신혼	-11.7546
▁출간	-11.7546
▁채취	-11.7546
▁코코	-11.7546
▁방북	-11.7546
▁응원합니다	-11.7546
▁뒤집어	-11.7546
▁급급	-11.7546
▁학교생활	-11.7546
▁유례	-11.7546
▁돌아왔는데	-11.7546
▁주목된다	-11.7546
▁축구선수	-11.7547
▁계급	-11.7547
▁동결	-11.7547
▁함양	-11.7547
▁생겼으면	-11.7547
▁90%	-11.7547
▁만들어냈다	-11.7547
▁시설물	-11.7547
▁드러낸	-11.7547
▁놀았어	-11.7547
▁소독	-11.7547
▁목포	-11.7548
▁않았습니다	-11.7548
▁맛있어	-11.7548
▁그러니까	-11.7548
▁공표	-11.7548
▁충당	-11.7548
▁경제협력	-11.7548
▁되었으면	-11.7548
▁마침표	-11.7549
▁양쪽	-11.7549
▁독려	-11.7549
▁포함됐다	-11.7549
▁물결	-11.7549
▁고질적	-11.7549
▁차익	-11.7549
▁엔저	-11.7549
▁경매	-11.7549
▁AS	-11.755
▁반복되는	-11.755
▁굳건	-11.755
▁태어났다	-11.755
▁표준화	-11.755
▁60%	-11.755
모집	-11.755
▁주먹	-11.755
▁제자리	-11.755
▁극동	-11.755
▁입각	-11.7551
▁깨달	-11.7551
▁이뤄내	-11.7551
▁먹을래	-11.7551
▁탈락	-11.7551
▁네덜란드	-11.7551
▁불합리	-11.7551
▁한꺼번에	-11.7551
▁NLL	-11.7551
▁직권상정	-11.7551
▁팁	-11.7551
▁더러워	-11.7551
▁자유무역협정	-11.7551
▁라스베가스	-11.7552
▁되풀이하	-11.7552
▁상봉	-11.7552
▁만났던	-11.7552
▁그럴까	-11.7552
▁키운	-11.7553
▁하필	-11.7553
▁당헌	-11.7553
▁피곤할	-11.7553
▁과실	-11.7553
▁양말	-11.7553
▁사법	-11.7553
▁아무렇지도	-11.7553
▁쓰려고	-11.7553
계에	-11.7554
▁김양	-11.7554
▁고령화	-11.7554
▁흘렸다	-11.7554
▁가르쳤	-11.7554
▁돌풍	-11.7554
▁비워	-11.7555
▁당겨	-11.7555
▁풍성	-11.7555
▁회유	-11.7555
▁민중	-11.7556
▁표명했다	-11.7556
▁우려된다	-11.7556
▁뛰어나	-11.7557
▁태국	-11.7557
▁주총	-11.7557
▁웨이트리스야	-11.7557
▁안전사고	-11.7557
▁경제발전	-11.7557
▁허위사실	-11.7557
▁외야수	-11.7558
NHN	-11.7558
▁하냐	-11.7558
8%	-11.7558
▁산업통상자원부	-11.7558
▁결혼해도	-11.7558
▁이쁜	-11.7559
▁추종	-11.7559
▁적법	-11.7559
▁영원한	-11.756
▁권고했다	-11.756
▁남자한테	-11.756
인이다	-11.756
곳에서	-11.756
▁등장했다	-11.756
▁신작	-11.756
▁엄마한테	-11.756
▁온통	-11.756
▁지낼	-11.756
▁건강하다	-11.7561
▁아프지만	-11.7561
▁즐겼다	-11.7561
▁생일이야	-11.7561
▁막았다	-11.7561
▁쓸데없	-11.7562
▁선거에	-11.7562
▁춘다	-11.7562
▁변형	-11.7562
▁개막전	-11.7563
▁장례식	-11.7563
▁증언했다	-11.7563
▁의문이	-11.7564
▁바뀌었다	-11.7564
▁일으	-11.7564
▁진통	-11.7565
▁지체	-11.7565
▁자제	-11.7566
▁얻으려	-11.7566
▁심려	-11.7566
▁여왕	-11.7566
▁호국	-11.7566
▁세밀	-11.7566
▁퇴근했다	-11.7566
▁헤어졌다	-11.7567
▁방산	-11.7567
▁삐	-11.7567
▁유죄	-11.7567
▁뛰었다	-11.7567
▁영등포	-11.7567
▁시어머니가	-11.7568
▁떨어질	-11.7568
▁못지않	-11.7568
체인	-11.7568
▁싱가포르	-11.7568
▁MOU	-11.7568
▁리모델링	-11.7568
▁식약처	-11.7568
▁짠	-11.7568
▁흠	-11.7568
▁흰	-11.7568
▁안희정	-11.7569
▁비참한	-11.7569
▁사물인터넷	-11.7569
▁제랄드	-11.7569
▁보육교사	-11.7569
▁비정상적	-11.7569
▁삼성화재	-11.7569
▁운송	-11.7569
▁태양광	-11.757
▁녹색	-11.757
▁지하수	-11.7572
▁눈앞에	-11.7573
▁틀린	-11.7573
▁이득	-11.7573
됐는지	-11.7574
▁주류	-11.7574
▁사야지	-11.7574
▁주역	-11.7574
▁빠져있다	-11.7575
▁소파에서	-11.7575
▁보증금	-11.7575
▁선동	-11.7575
▁한눈	-11.7575
▁잠정	-11.7575
프레	-11.7576
▁사회생활	-11.7576
▁마술	-11.7576
▁사랑합니다	-11.7577
▁않으며	-11.7577
▁학생부	-11.7578
▁패스트푸드를	-11.7578
▁초청해	-11.7578
▁직책	-11.7578
▁인체	-11.7578
▁연초	-11.7579
▁개각	-11.7579
▁일어났어	-11.7579
▁꾸미	-11.758
▁외신	-11.758
정의	-11.7581
▁답변했다	-11.7581
▁바꿔야	-11.7581
▁장남	-11.7582
▁실어	-11.7582
▁확대됐다	-11.7582
비리	-11.7583
▁사업에서	-11.7583
고양이	-11.7583
산업부	-11.7584
▁순찰	-11.7584
스쿨	-11.7585
▁스타일이	-11.7585
▁제빵사	-11.7585
▁미쳤	-11.7586
▁거둔	-11.7586
▁롯데마트	-11.7586
▁창조경제혁신센터	-11.7586
▁스프링캠프	-11.7586
▁해병대	-11.7586
▁조선중앙통신	-11.7586
▁멀티	-11.7586
▁비슷하다	-11.7586
▁다양성	-11.7586
▁확정했다	-11.7587
▁잊어야	-11.7587
▁화질	-11.7587
▁잠들	-11.7587
▁책임질	-11.7587
▁상상력	-11.7587
▁대대적	-11.7587
▁재건	-11.7587
▁소극적	-11.7587
▁ll	-11.7587
▁무너진	-11.7588
▁노동개혁	-11.7588
▁상황이었다	-11.7588
선박	-11.7588
해준다	-11.7588
▁뿐인데	-11.7588
▁고백했다	-11.7589
▁되려면	-11.7589
타로	-11.7589
▁사무장	-11.759
▁입구	-11.759
▁걸린다	-11.759
공업	-11.759
▁치러지	-11.759
▁경감	-11.7591
정규리그	-11.7591
▁재연	-11.7591
▁재계약	-11.7591
▁규정했다	-11.7591
▁음주	-11.7591
▁취했다	-11.7592
▁제공되	-11.7592
▁세탁기	-11.7593
▁다투	-11.7594
▁얘기할	-11.7594
▁천국	-11.7594
▁강타	-11.7594
▁조사결과	-11.7595
▁물어보는게	-11.7596
▁먹어보세요	-11.7596
▁용어	-11.7596
▁소비자들에게	-11.7596
▁정도였다	-11.7597
▁찬물	-11.7597
▁창문	-11.7598
▁다졌다	-11.7598
▁그쪽	-11.7598
▁추정되는	-11.7598
▁손길	-11.7599
▁선임연구원	-11.7599
▁법사위	-11.76
▁실망감	-11.7601
▁깊다	-11.7602
▁법조인	-11.7602
▁누구든	-11.7602
▁사법부	-11.7603
살아	-11.7603
▁랭킹	-11.7604
▁불길	-11.7604
▁동물이야	-11.7605
▁비판이	-11.7605
▁맞을까	-11.7606
▁단정	-11.7606
타수	-11.7606
▁119	-11.7606
▁원격	-11.7606
▁음식이야	-11.7607
▁파워	-11.7607
▁빨	-11.7608
▁하락했다	-11.7608
▁종식	-11.7608
▁추모	-11.7609
▁끼치	-11.7609
▁곤	-11.761
▁구형	-11.761
▁면도	-11.761
▁지나친	-11.761
▁아프게	-11.761
▁자국	-11.761
▁독재	-11.7611
▁문이	-11.7611
▁130	-11.7611
▁공감한다	-11.7611
그의	-11.7612
▁신형	-11.7612
▁변신	-11.7613
▁줄였다	-11.7613
▁항공사	-11.7613
▁모으기	-11.7613
▁한글	-11.7614
일만에	-11.7614
▁판단한다	-11.7614
▁그러다가	-11.7616
▁주무	-11.7617
▁계획이니	-11.7617
▁몸살	-11.7617
버트	-11.7618
▁생각엔	-11.7619
▁47	-11.7619
▁GM	-11.7619
▁가라앉	-11.7619
▁참가했다	-11.7619
▁해석했다	-11.762
▁곰	-11.7621
▁목적이	-11.7622
▁보조금	-11.7622
▁신기술	-11.7623
▁현대자동차	-11.7623
▁간신	-11.7623
▁1990	-11.7624
▁자산관리	-11.7625
업자	-11.7626
▁위자료	-11.7626
▁쉬게	-11.7627
유산	-11.7628
▁위안	-11.7629
▁자선	-11.763
제품을	-11.7631
▁신경쓰는	-11.7631
▁이목	-11.7633
▁기다리는게	-11.7633
▁견고	-11.7634
▁거르	-11.7634
▁햄버거를	-11.7635
▁노력했다	-11.7635
▁몰라서	-11.7635
▁사교육	-11.7635
하겠습니다	-11.7635
▁원료	-11.7637
▁연정	-11.7637
▁지지자들	-11.7637
▁미술관	-11.7639
▁작가야	-11.7639
치와	-11.7639
▁몽	-11.764
▁지원하겠다	-11.764
▁선정했다	-11.7641
▁변화구	-11.7641
▁입양되었	-11.7645
▁파악하고	-11.7645
▁시간동안	-11.7645
▁떨어진다	-11.7646
▁위임	-11.7646
▁그보다	-11.7646
▁주실	-11.7647
▁흐르는	-11.7647
▁근무시간	-11.7648
▁GS	-11.7648
▁원활한	-11.7649
▁주장이다	-11.7649
▁오른다	-11.765
▁마루	-11.765
▁경유	-11.7651
▁서비스업	-11.7653
▁선생	-11.7654
▁플러스	-11.7657
▁당신만	-11.7657
▁털어놓	-11.7657
▁승자	-11.7657
▁재미있고	-11.7658
▁제공했다	-11.7659
▁스시	-11.7659
▁지지한다	-11.7659
▁정해보세요	-11.766
▁추세다	-11.766
▁받으면서	-11.7661
▁바꾼	-11.7662
▁외환	-11.7663
모씨	-11.7663
▁학생이다	-11.7664
▁화상	-11.7664
▁벌인	-11.7664
▁관점	-11.7665
었니	-11.7668
▁회피	-11.7669
▁델	-11.7671
▁니가	-11.7671
▁희망하는	-11.7672
▁도전하는	-11.7672
▁어젯밤에	-11.7673
▁진리	-11.7673
▁일관되	-11.7674
▁존중하고	-11.7674
▁않았기	-11.7674
▁이내에	-11.7676
▁물품	-11.7676
▁금메달	-11.7677
▁알리기	-11.7677
▁판단하	-11.7677
▁편안	-11.7679
▁트럭에서	-11.7679
▁여사친이	-11.768
대신	-11.768
▁지냈다	-11.7681
▁두달이	-11.7682
승호	-11.7682
▁제공받	-11.7682
▁깨진	-11.7683
▁고양이에게	-11.7683
36	-11.7684
▁대중교통을	-11.7684
▁나란	-11.7684
▁빨간색을	-11.7684
▁주인이	-11.7684
▁작고	-11.7685
▁출판사	-11.7686
▁일본어	-11.7687
▁청춘	-11.7687
▁개최했다	-11.7688
▁설명하고	-11.7688
▁넘는다	-11.7689
▁해야죠	-11.7689
▁명단을	-11.7689
▁중재	-11.769
▁전북은	-11.769
그렇구나	-11.7691
▁담화	-11.7692
▁ᅲᅲ	-11.7693
▁기억하고	-11.7694
▁편이다	-11.7694
▁혼자만의	-11.7695
▁관계없	-11.7695
▁어디든	-11.7696
▁언론인	-11.7696
▁어울리고	-11.7697
▁바꾸기	-11.7697
ar	-11.7698
▁99	-11.7699
▁활동하고	-11.7699
▁되었나	-11.7701
냉장	-11.7701
▁보내야	-11.7702
▁그라운드	-11.7702
▁문화에	-11.7703
▁게재	-11.7704
도발	-11.7704
▁사람인데	-11.7705
베이	-11.7706
▁농도	-11.7706
▁이용해서	-11.7707
▁특검보	-11.7707
▁이곳에서	-11.7708
▁무시하고	-11.7709
▁북미	-11.771
정치를	-11.7711
▁보였고	-11.7714
▁남들이	-11.7715
▁파악해	-11.7715
▁남자니	-11.7717
▁채널에서	-11.7717
▁지속할	-11.7718
▁2%	-11.7719
▁캘리포니아에서	-11.7719
하나봐	-11.772
▁마일	-11.7721
▁인사에	-11.7722
르기까지	-11.7722
▁독립성	-11.7723
▁춘	-11.7724
▁유지되	-11.7724
▁왕자	-11.7725
▁신차	-11.7726
▁51	-11.7726
▁침묵을	-11.7727
▁바다와	-11.7727
▁구간	-11.7729
▁좋아하는거	-11.7729
▁이윤	-11.773
▁상당수	-11.773
대학에	-11.773
▁바퀴	-11.773
▁안정화	-11.7731
▁소주	-11.7732
▁합격자	-11.7733
나가겠다	-11.7733
였을	-11.7734
▁부인하	-11.7738
통화	-11.774
▁발휘하	-11.7741
▁중단하고	-11.7742
▁재계	-11.7742
▁경찰서	-11.7743
것으로	-11.7743
▁매력이	-11.7745
▁"12	-11.7745
▁반영된	-11.7748
▁브리	-11.7749
▁주문하	-11.7749
▁여자에게	-11.775
▁방향에	-11.775
만원까지	-11.775
과정을	-11.775
▁모험을	-11.7751
▁대단하	-11.7753
▁벌어지는	-11.7753
▁지시한	-11.7754
▁받으려	-11.7755
위원회에	-11.7757
후에	-11.7757
▁개발자	-11.7758
▁제안한	-11.7758
▁군대에서	-11.7758
▁만족도	-11.7759
▁물어봐도	-11.7759
▁실무자	-11.7759
▁수염	-11.776
▁박모씨	-11.776
▁젠	-11.7762
▁마켓	-11.7765
가량	-11.7766
▁집중하는	-11.7767
▁개최되	-11.7767
서류	-11.7769
▁창출할	-11.7769
▁기획사	-11.7772
▁컴	-11.7777
▁해결하고	-11.7778
▁선수야	-11.7779
▁직업이다	-11.778
▁격려하고	-11.7781
속에	-11.7782
주셨	-11.7782
▁피하는	-11.7783
▁운영에	-11.7783
전선	-11.7785
현상	-11.7787
▁돌리는	-11.7788
▁얘기다	-11.779
▁한방	-11.779
▁살펴보고	-11.7791
▁여행하고	-11.7791
▁최순실씨	-11.7796
▁불고	-11.7799
▁되어서	-11.7802
▁운영해	-11.7806
▁의심이	-11.7808
▁돌아오기	-11.7812
▁높아지는	-11.7814
▁맞는지	-11.7817
▁애국	-11.7817
처를	-11.7821
▁시도하고	-11.7824
▁한두	-11.7825
저자	-11.7828
▁정치권에서	-11.783
▁당선자	-11.783
▁여자들이	-11.7831
우드	-11.7832
▁강력하	-11.7833
▁환자들	-11.7834
O	-11.7835
▁평가하는	-11.7837
▁번개	-11.7837
▁지금부터	-11.7838
▁찾기를	-11.7839
▁배려가	-11.7839
▁사망자	-11.7841
▁예정인	-11.7842
▁인생에서	-11.7843
▁경력을	-11.7843
▁감자	-11.7843
▁사측	-11.7843
▁남기고	-11.7844
▁하셔	-11.7845
▁손쉽	-11.7846
▁약정	-11.7846
▁센터장	-11.7848
▁만일	-11.785
▁시작하면	-11.7855
▁관계자들이	-11.7855
▁돌아가고	-11.7855
▁자신과	-11.7856
▁적극적이	-11.7857
기까지	-11.7858
▁외롭	-11.7858
▁그렇고	-11.7858
▁찰	-11.786
le	-11.7862
▁사이로	-11.7862
▁선택한	-11.7863
▁종로	-11.7863
▁전하며	-11.7864
▁챙기는	-11.7867
▁딸과	-11.787
▁행복해지	-11.7871
▁악기	-11.7873
▁져야	-11.7874
▁은행장	-11.7877
로드	-11.7877
▁뭐하는	-11.7879
▁미니	-11.7882
▁지문	-11.7882
▁점수가	-11.7888
급하게	-11.789
▁록	-11.789
▁인용해	-11.789
▁노조가	-11.7891
▁집은	-11.7892
색을	-11.7893
라니	-11.7894
▁없이도	-11.7901
▁공연이	-11.7901
은연	-11.7906
▁수령	-11.7908
중대	-11.7908
현철	-11.7909
▁상징하는	-11.7909
▁기습	-11.791
▁노려	-11.7911
▁형성되	-11.7913
▁맞다고	-11.7917
시키지	-11.7918
▁버리는	-11.7919
▁리스	-11.792
▁머릿속	-11.7921
▁조건이	-11.7922
되니까	-11.7923
▁감사원	-11.7923
▁못했고	-11.7923
왕이	-11.7929
▁오르고	-11.793
75	-11.793
트리	-11.7935
▁의장의	-11.7936
▁휴스턴	-11.7937
일간의	-11.7938
99	-11.7939
자들은	-11.794
▁해적	-11.7943
돼서	-11.7948
▁번째로	-11.7951
▁창의	-11.7952
▁판단한	-11.7953
었기	-11.7955
▁들어봤	-11.7956
▁그중	-11.7956
▁아픔이	-11.7956
작은	-11.7956
▁교대	-11.796
래요	-11.7961
▁구단과	-11.7962
▁그렇기	-11.7964
어린이	-11.7964
▁이별도	-11.7965
▁버리고	-11.7968
▁우표	-11.7968
▁인천시	-11.7972
금지	-11.7973
양호	-11.7977
동에	-11.7978
마리가	-11.7979
전화	-11.7979
▁초반에	-11.7985
▁후임	-11.7987
▁상품으로	-11.7988
▁대기업에	-11.7989
▁넘어가면	-11.7989
했네	-11.799
▁맘에	-11.799
▁있는데요	-11.7991
▁사무	-11.7991
▁방해	-11.7992
극을	-11.7996
사건을	-11.7998
안은	-11.7999
▁놓는	-11.7999
▁언론사	-11.8
▁우리나라에서	-11.8
▁만들어주	-11.8001
▁지도를	-11.8002
▁단체들	-11.8003
TC	-11.8005
▁고사	-11.8008
▁수신	-11.8008
▁줄기	-11.8009
▁알려지	-11.8009
▁구글의	-11.8013
업체에	-11.8013
▁의제	-11.8014
▁마음만	-11.8014
▁장면을	-11.8015
▁거부하	-11.8016
이건	-11.802
▁적극적	-11.8024
▁못하다	-11.803
▁에코	-11.803
▁이수	-11.803
▁원동력이	-11.803
▁낳을	-11.8032
▁속으로	-11.804
만주	-11.8041
▁의혹과	-11.8042
▁나가면	-11.8043
피스	-11.8044
▁송도	-11.8046
w	-11.805
그가	-11.8051
소통	-11.8054
표한다	-11.8054
▁본관	-11.8058
▁치마	-11.806
▁영화와	-11.806
▁필수적	-11.8062
▁뛰어들	-11.8063
▁외식	-11.8065
▁장소를	-11.8065
▁일감	-11.8068
▁싸이	-11.807
▁되는게	-11.807
었으며	-11.8072
▁티를	-11.8073
▁일해야	-11.8075
▁여인	-11.8076
▁주인공이	-11.808
▁무인	-11.8082
통을	-11.8087
리그에서	-11.8088
▁이정	-11.8089
▁썸타	-11.809
복을	-11.8091
▁예견	-11.8093
강팀	-11.8099
통은	-11.8103
▁밀리	-11.8107
진술	-11.8109
▁채팅하는	-11.8114
▁미국인	-11.8114
▁인사는	-11.8115
현수	-11.8115
▁빚어	-11.8117
쳤다	-11.8119
인가봐	-11.8119
▁갖기	-11.8123
▁마르	-11.8124
업체들	-11.8126
.5%	-11.8126
인에게	-11.8127
▁고통이	-11.8127
만대	-11.8129
▁투수가	-11.813
노동자	-11.8131
▁노력도	-11.8135
▁직장에	-11.8136
경기도	-11.814
최재	-11.8142
▁기술에	-11.8144
▁마련돼	-11.8146
▁난방	-11.8147
▁동의하지	-11.8152
▁희	-11.8156
▁"5	-11.8157
박종	-11.8158
▁수단이	-11.8159
▁운영위	-11.817
▁현지에	-11.8174
▁대응하기	-11.8175
▁둔화되	-11.8177
▁등판한	-11.8181
▁여겨	-11.8187
보단	-11.8188
증이	-11.8191
▁하려	-11.8193
단체에	-11.8194
▁예산이	-11.8194
브리	-11.8197
▁것이죠	-11.8201
▁유행	-11.8202
학교에서	-11.8205
▁찾아볼	-11.8206
영화	-11.8207
▁살면	-11.8209
▁강사	-11.8211
▁같고	-11.8214
됐는데	-11.8216
▁정장	-11.822
▁공지	-11.8222
방법이	-11.8223
▁사나	-11.8232
▁수산	-11.8235
▁둬	-11.8235
았으니	-11.8238
▁실시되	-11.8238
웰	-11.8245
▁어른이	-11.8246
까지만	-11.8248
다닌다	-11.8249
▁잘해주는	-11.8252
▁내리지	-11.8253
▁국방장관	-11.8255
자들이	-11.8262
▁축구장	-11.8264
해야할지	-11.8268
▁세우는	-11.8269
▁고수	-11.827
▁가끔은	-11.8275
어를	-11.8279
▁광주시	-11.828
심을	-11.8282
하니까	-11.8283
▁간섭	-11.8287
▁카드사	-11.8288
▁수장	-11.8293
러운	-11.8294
순이	-11.8297
▁게임에서	-11.8297
▁개조하	-11.8302
▁내전	-11.8302
소장	-11.8303
▁상황과	-11.8305
미국에서	-11.8305
▁결함	-11.8308
▁구로	-11.8312
부에	-11.8313
파가	-11.8322
▁생각했	-11.8322
▁사지	-11.8323
▁해결책	-11.8324
▁전수	-11.8326
장기	-11.8331
논리	-11.8333
년제	-11.8334
▁응시	-11.8337
▁조차	-11.8342
▁수수	-11.8342
그룹의	-11.8347
대책위	-11.8349
▁집중하고	-11.835
32	-11.836
▁자유가	-11.8368
▁신조	-11.8371
세력이	-11.8372
▁해야할	-11.8372
최근에	-11.8372
▁주가를	-11.8374
▁같기	-11.8375
▁정책적	-11.8382
▁적용되	-11.8385
▁압도	-11.8387
▁애도	-11.8387
집을	-11.8388
97	-11.8394
▁청와대와	-11.8396
▁마무리하	-11.8396
▁도시를	-11.8396
▁변해	-11.8397
▁허무	-11.8398
▁게임이	-11.8401
진석	-11.8403
▁연습이	-11.8403
▁먹이	-11.8407
한국에	-11.8408
▁시간적	-11.8408
▁내면	-11.8414
▁제정	-11.8414
아마	-11.8415
전기	-11.8417
게임을	-11.8418
12	-11.842
▁보좌관	-11.8421
▁실천해	-11.8422
▁사용이	-11.8429
▁우상	-11.8433
▁원동력	-11.8434
기보다는	-11.8437
기동	-11.844
하이	-11.8442
아산	-11.8443
▁감지	-11.8447
▁오락가락	-11.845
우여	-11.8451
▁거시	-11.8451
▁대표팀에	-11.8454
▁주면서	-11.8458
▁줄리	-11.8458
설을	-11.846
▁질문이	-11.8463
▁자기도	-11.8464
팀과	-11.8465
만개	-11.847
▁역임	-11.8476
가운	-11.8479
이별	-11.8482
▁할머니들	-11.8485
▁자녀들	-11.8488
정하는	-11.8492
▁안정적이	-11.8492
▁말하면서	-11.8494
화에	-11.8499
민주당이	-11.85
▁질적	-11.85
▁뛰지	-11.8506
인정	-11.8506
에서만	-11.8508
▁먹어봐	-11.8509
▁보장받	-11.8511
▁여성은	-11.8512
▁비공식	-11.8512
개발을	-11.8517
연계	-11.852
▁미치	-11.852
한국이	-11.8523
▁신세	-11.8531
▁상승이	-11.8532
▁힘들고	-11.8535
▁노사정	-11.8536
83	-11.8537
성태	-11.854
▁음악가	-11.8544
침이	-11.8545
▁인생에	-11.8546
▁대부분이	-11.8547
▁졸업생	-11.855
차적으로	-11.8556
▁평가하	-11.8557
기부	-11.8558
▁총리를	-11.8564
▁웃으	-11.8571
▁도시가	-11.8575
▁파고	-11.8577
크를	-11.8583
▁낭비	-11.8586
▁방법도	-11.8589
▁남들	-11.859
▁생활이	-11.859
▁88	-11.8591
DC	-11.8593
▁보기에	-11.8593
▁서비스에	-11.8598
▁우려에	-11.8599
▁안되겠지	-11.86
▁수험생	-11.8602
▁보장하	-11.8602
법은	-11.8603
▁그레이	-11.8604
해야지	-11.8605
높	-11.8605
금주	-11.8606
▁당구	-11.8608
보장	-11.8609
▁배구	-11.8609
▁겁이	-11.8612
님의	-11.8612
▁그러다	-11.8615
▁향상에	-11.8617
▁아니지	-11.8624
▁물으	-11.8634
▁대책에	-11.8638
▁정치권이	-11.8639
▁시급	-11.8641
▁개인이	-11.8642
▁의미로	-11.8651
▁명단	-11.8653
▁여동생이	-11.8659
▁넘을	-11.8665
▁l	-11.8668
변협	-11.8669
보다도	-11.867
▁법안들	-11.867
▁초등학교에	-11.867
▁바닥에	-11.8677
ha	-11.8677
거래일	-11.8682
님들	-11.869
▁나가려	-11.8693
▁물질	-11.8694
▁결합한	-11.8695
히지	-11.8695
고교	-11.8695
▁49	-11.8699
▁손님들	-11.87
▁기술자	-11.87
▁썸은	-11.8703
▁관찰	-11.8704
연중	-11.8707
▁사물	-11.8709
▁아까	-11.8709
▁배신	-11.8712
방위	-11.8713
▁요리해	-11.8713
전체적	-11.8717
▁차단하는	-11.872
제에	-11.8721
▁차고	-11.8723
56	-11.8724
▁간직하	-11.8725
▁도덕	-11.8729
▁여자친구는	-11.8732
▁투수들	-11.8734
늘	-11.8734
현장에서	-11.8738
우려	-11.8739
▁만들면	-11.8739
▁없었으	-11.8741
▁지지자	-11.8743
▁인사들	-11.8743
항공	-11.8743
▁극단	-11.875
▁서두르	-11.8752
▁생물학	-11.876
지급	-11.876
▁테마	-11.8761
장기적으로	-11.8762
▁f	-11.8765
▁간다고	-11.8768
일까요	-11.8768
▁편안하	-11.8772
벽	-11.8773
▁하향	-11.8773
표준	-11.8774
▁아직은	-11.8776
강도	-11.8778
▁71	-11.8781
▁의료기관	-11.8787
사상	-11.8789
국정	-11.8792
테리	-11.8793
▁걱정되	-11.8796
점수	-11.8796
설에	-11.8798
정지	-11.8799
제공	-11.8799
▁오셨	-11.8802
▁여러분들	-11.8805
▁하는것	-11.8806
▁나라에	-11.8807
뒀	-11.8807
원씩	-11.8808
▁대중교통	-11.8809
▁악화되	-11.8809
▁머리카락	-11.8809
폭력	-11.881
▁안주	-11.8811
▁해외에	-11.8811
빠	-11.8812
미는	-11.8813
▁감자튀김	-11.8813
사건에	-11.8815
▁견디	-11.8818
▁던졌	-11.8819
알파	-11.882
▁AP	-11.882
수술	-11.8821
▁동점	-11.8821
라이프	-11.8822
공학	-11.8822
▁괴롭히	-11.8822
▁땀	-11.8823
당내	-11.8823
지사는	-11.8823
쾌	-11.8824
숨	-11.8827
800	-11.8828
원식	-11.8828
가능한	-11.8831
Y	-11.8831
▁구입한	-11.8832
콘텐츠	-11.8832
▁때로	-11.8832
농식품부	-11.8833
빌딩	-11.8834
무늬	-11.8836
플레이	-11.8836
플러스	-11.8836
셀	-11.8837
졸	-11.8837
시리즈	-11.8837
옴	-11.8838
셈	-11.8838
쭉	-11.8838
드립니다	-11.8838
U	-11.8839
▁뛰어넘	-11.8839
▁들지	-11.8839
쌍	-11.884
밭	-11.884
스로	-11.884
김광현	-11.8841
대행	-11.8841
39	-11.8841
칩	-11.8841
세이브	-11.8842
흔	-11.8842
교섭	-11.8842
특별법	-11.8842
떼	-11.8843
▁자신있	-11.8843
컨설팅	-11.8843
유승민	-11.8843
고속도로	-11.8843
청문회	-11.8843
초등학교	-11.8843
솔직히	-11.8844
몇	-11.8844
스페인	-11.8844
가계부채	-11.8844
한나라당	-11.8844
슈퍼	-11.8845
공공기관	-11.8845
변호인	-11.8845
나머지	-11.8845
▁박영	-11.8845
라디오	-11.8846
딸	-11.8846
ᄏᄏᄏ	-11.8846
▁선거가	-11.8846
▁빨간색	-11.8846
있다는	-11.8846
고마워	-11.8847
징계	-11.8847
게임즈	-11.8848
신뢰	-11.8848
국회의장	-11.8849
▁존중해	-11.8849
오빠	-11.8849
음료	-11.8849
방침	-11.8849
먼저	-11.885
님은	-11.885
온라인	-11.885
발전소	-11.8851
공모	-11.8851
위축	-11.8852
금속	-11.8853
위대한	-11.8854
매출	-11.8854
웨	-11.8855
땀을	-11.8855
혹시	-11.8855
채무	-11.8857
케이크	-11.886
하셨다	-11.8863
▁당당	-11.8863
▁햄버거	-11.8864
▁사랑하는지	-11.8864
▁광역	-11.8865
▁콜로라도	-11.8866
▁참석자	-11.8866
김현수	-11.8867
댔다	-11.8867
비교	-11.8869
제조업	-11.8869
기업들의	-11.8871
덩	-11.8872
▁설렘	-11.8874
주민들이	-11.8875
뿐이야	-11.8878
일본은	-11.8879
타기	-11.888
언어	-11.888
교원	-11.8882
▁숙소	-11.8883
통일부	-11.8885
보를	-11.8886
▁상가	-11.8887
지질	-11.889
▁조깅	-11.889
미안	-11.8893
▁결혼하기	-11.8897
▁계파	-11.8898
그림	-11.8904
경제적	-11.8904
틴	-11.8905
논의	-11.8906
경기로	-11.8907
상승	-11.8907
감사원	-11.8911
▁반장	-11.8911
▁서초구	-11.8911
택시	-11.8912
▁뒤집	-11.8913
유가	-11.8913
▁노래는	-11.8913
▁커피는	-11.8913
급식	-11.8916
스카이	-11.8918
▁신용등급	-11.8918
▁여당이	-11.8919
열차	-11.8919
▁태어	-11.8921
▁신탁	-11.8924
▁필요하니	-11.8927
▁기적	-11.8927
▁82	-11.8928
▁친절	-11.8928
▁어디있	-11.893
▁얘	-11.893
▁바리스타	-11.8931
▁댄서	-11.8931
▁박지성	-11.8931
듣고	-11.8932
▁꾸준	-11.8932
추세	-11.8933
선택	-11.8934
로봇	-11.8936
계획에	-11.8937
▁슬프게	-11.8939
▁옮겼	-11.8939
무진	-11.8939
차원에서	-11.894
▁이원	-11.894
▁축산	-11.8941
류현진은	-11.8941
▁사과해야	-11.8941
▁우연	-11.8941
▁갔었	-11.8942
과정에	-11.8942
차장	-11.8944
▁도입을	-11.8945
▁에스	-11.8946
▁연탄	-11.8947
실한	-11.8949
▁대처하	-11.8951
텀	-11.8951
▁이사하는	-11.8952
럼	-11.8952
▁무력화	-11.8952
쇄	-11.8952
룬	-11.8953
정태	-11.8953
화되고	-11.8954
▁유족들	-11.8955
쁘	-11.8956
▁연주해	-11.8956
▁특별감찰관	-11.8958
직원	-11.8958
장관은	-11.8958
▁가봐	-11.896
▁높아진	-11.896
보인다	-11.896
뢰	-11.896
▁아쉬워	-11.896
랍	-11.8961
▁광범위	-11.8962
텔	-11.8962
킴	-11.8963
틱	-11.8963
몬	-11.8964
▁용납	-11.8964
▁오리온	-11.8964
▁충청	-11.8966
쁠	-11.8966
▁면세	-11.8966
멘	-11.8966
변화에	-11.8966
▁유망	-11.8967
▁메달	-11.8968
▁만남에	-11.8968
▁싶을	-11.8968
▁컨셉	-11.8968
판단	-11.8968
▁처방	-11.8969
▁화내	-11.8969
▁운전해	-11.8969
시키려	-11.8969
뷰	-11.8969
렛	-11.897
켈	-11.897
툰	-11.897
뭇	-11.897
▁무뎌지	-11.897
▁원스톱	-11.897
▁겪은	-11.897
▁결혼적령기	-11.897
▁곁들인	-11.897
▁과징금	-11.897
▁노르웨이	-11.897
▁놓쳤어	-11.897
▁동기부여	-11.897
▁디저트	-11.897
▁뚱뚱하	-11.897
▁래브라도	-11.897
▁로펌	-11.897
▁만장일치	-11.897
▁머물렀다	-11.897
▁명확히	-11.897
▁몰아넣	-11.897
▁바르셀로나	-11.897
▁백악관	-11.897
▁밸런스	-11.897
▁버섯	-11.897
▁버지니아	-11.897
▁보여줬다	-11.897
▁브런치	-11.897
▁비슷해	-11.897
▁성균관대	-11.897
▁세리머니	-11.897
▁스케줄	-11.897
▁스탠포드	-11.897
▁시트콤	-11.897
▁신재생에너지	-11.897
▁싱글맘이	-11.897
▁쌓이	-11.897
▁씻고	-11.897
▁안드로이드	-11.897
▁앞당겨	-11.897
▁엄지손가락	-11.897
▁에어컨	-11.897
▁열흘	-11.897
▁왼손	-11.897
▁자릿수	-11.897
▁짧아	-11.897
▁짧지	-11.897
▁탔어	-11.897
▁펩시를	-11.897
▁포르투갈	-11.897
▁포퓰리즘	-11.897
▁피츠버그	-11.897
▁피크닉	-11.897
교육지원청	-11.897
댈	-11.897
릅니다	-11.897
벳	-11.897
뾰	-11.897
왤	-11.897
윽	-11.897
▁까닭	-11.897
▁넣으	-11.897
▁돌아섰다	-11.897
▁똑똑해	-11.897
▁뛴다	-11.897
▁매뉴얼	-11.897
▁못박았다	-11.897
▁바빴어	-11.897
▁성희롱	-11.897
▁슈퍼히어로	-11.897
▁심포지엄	-11.897
▁아이패드	-11.897
▁아팠다	-11.897
▁어울린다	-11.897
▁여드름	-11.897
▁우병우	-11.897
▁자치단체	-11.897
▁착륙	-11.897
▁탔다	-11.897
▁판문점	-11.897
▁페라리	-11.897
렉서스	-11.897
클리닉	-11.897
햄	-11.897
▁공청회	-11.897
▁단언했다	-11.897
▁브루	-11.897
▁선풍기	-11.897
▁센스있	-11.897
▁시중은행	-11.897
▁임팔라	-11.897
▁5·18	-11.897
성완종	-11.897
▁다락방	-11.897
▁상임고문	-11.897
▁프로세스	-11.897
▁MRI	-11.897
▁백령도	-11.897
▁최고기온	-11.897
▁경기부양	-11.897
▁본지와의	-11.897
▁OLED	-11.897
▁순매도	-11.897
▁급기야	-11.897
▁기다림	-11.897
▁달달한	-11.897
▁뒤통수	-11.897
▁뜨겁	-11.897
▁비열한	-11.897
▁헤지펀드	-11.897
박재완	-11.897
프로농구	-11.897
▁만남이었길	-11.897
▁결정이었을텐데	-11.897
▁베스트셀러	-11.897
▁승용차	-11.897
▁인턴쉽	-11.897
▁쟁취하	-11.897
인터파크	-11.897
▁위대하고	-11.897
▁쳤어	-11.897
▁베이비	-11.897
▁퍼즐	-11.897
▁설문조사	-11.897
▁타이틀	-11.897
▁수족관	-11.897
▁엔트리	-11.897
▁주주총회	-11.897
▁잃어버렸다	-11.897
▁둘러싸	-11.897
▁식습관	-11.897
▁인천공항	-11.897
▁스윙	-11.897
▁버릇	-11.897
▁부행장	-11.897
▁좋았을텐데	-11.897
▁활짝	-11.897
▁어색해	-11.897
▁불법사찰	-11.8971
▁타깃	-11.8971
▁이방인	-11.8971
▁증폭	-11.8971
▁지명타자	-11.8971
탐험	-11.8971
▁성폭행	-11.8971
▁재취업	-11.8971
▁헤쳐	-11.8971
▁문턱	-11.8971
▁읽어봤	-11.8971
▁이유에서다	-11.8971
▁흐른	-11.8971
▁실망스럽다	-11.8971
▁아우르	-11.8971
▁내보내	-11.8971
▁의사소통	-11.8971
▁대비태세	-11.8971
▁일시	-11.8971
▁저녁식사	-11.8971
▁총파업	-11.8971
▁억지로라도	-11.8971
ro	-11.8971
▁리폼	-11.8971
▁여의치	-11.8971
▁자동차부품	-11.8971
▁슈퍼맨	-11.8971
▁히피	-11.8971
▁형사사건에	-11.8971
▁내놓는	-11.8971
▁엄숙	-11.8971
▁내세우	-11.8971
▁급성장	-11.8971
▁첫걸음	-11.8971
▁느껴진다	-11.8971
▁빨강	-11.8971
▁올라갔다	-11.8971
▁진지한	-11.8971
▁브루노	-11.8971
▁신혼여행	-11.8971
▁고기압의	-11.8971
칼로리	-11.8972
▁방사청	-11.8972
▁힘드신가	-11.8972
▁업무협약	-11.8972
▁대타협	-11.8972
▁업황	-11.8972
▁답답하네	-11.8972
▁첫인상	-11.8972
▁인접	-11.8972
▁이러지	-11.8972
▁냉철	-11.8972
▁환불	-11.8972
▁깨달음	-11.8972
▁호칭	-11.8972
방망이	-11.8972
법조계	-11.8972
▁느려	-11.8973
▁화폐	-11.8973
▁무기력	-11.8973
▁액수	-11.8973
▁재협상	-11.8973
▁대통령께	-11.8973
▁돌렸다	-11.8973
▁잠겨	-11.8973
▁기둥	-11.8973
▁바보같은	-11.8973
▁줄곧	-11.8973
▁건강상태	-11.8973
▁견조	-11.8973
▁끼친	-11.8973
▁스테	-11.8973
▁형평성	-11.8973
▁먹었습니다	-11.8973
▁강렬한	-11.8974
▁삼성생명	-11.8974
▁잡으세요	-11.8974
▁곰곰히	-11.8974
▁성범죄	-11.8974
▁세계대전	-11.8974
RO	-11.8974
▁너희들은	-11.8974
▁시리아	-11.8974
▁과식하	-11.8974
▁파탄	-11.8974
▁바랄	-11.8974
▁도왔다	-11.8974
▁민속	-11.8974
▁경제여건	-11.8974
▁냉방	-11.8975
▁애착	-11.8975
스틴	-11.8975
▁살펴볼	-11.8975
▁경제성장	-11.8975
▁공론화	-11.8975
▁노는거야	-11.8975
리바운드	-11.8975
납니다	-11.8975
▁날치기	-11.8975
▁교황	-11.8975
▁안타까워했다	-11.8975
▁지났는데	-11.8975
▁투명하	-11.8975
▁조짐	-11.8975
▁여기저기	-11.8975
▁주셨다	-11.8975
▁털어내	-11.8976
▁폰트	-11.8976
▁걱정하는	-11.8976
▁주식투자	-11.8976
uk	-11.8976
▁일하신다	-11.8976
▁싸울	-11.8976
▁곤란하다	-11.8976
▁색다른	-11.8976
▁마땅하다	-11.8976
▁부러진	-11.8976
▁웬수	-11.8976
▁저질렀다	-11.8976
▁대리인단	-11.8976
▁유료	-11.8976
▁맞물	-11.8977
▁더민주	-11.8977
▁세습	-11.8977
▁팔아	-11.8977
▁농구선수	-11.8977
▁나쁘진	-11.8977
▁알아가자	-11.8977
▁사랑했나봐	-11.8977
▁기다린다	-11.8977
▁행복하길	-11.8977
▁암살	-11.8977
▁달렸다	-11.8977
▁빠져나오	-11.8977
▁조지아	-11.8978
▁관계기관	-11.8978
▁다가온	-11.8978
▁힘껏	-11.8978
▁이념	-11.8978
▁박주영	-11.8978
▁늘어났다	-11.8978
▁처우	-11.8978
▁긴축	-11.8978
▁조립	-11.8978
▁좋았는데	-11.8978
▁귀엽다	-11.8978
▁논술	-11.8978
▁감행	-11.8978
러리	-11.8979
▁저쪽	-11.8979
▁방패	-11.8979
▁오른발	-11.8979
회째	-11.8979
▁기소됐다	-11.8979
▁스포츠카	-11.8979
배치	-11.8979
▁힘쓰겠다	-11.8979
▁짐승	-11.898
▁모르지만	-11.898
▁신흥시장	-11.898
▁아담	-11.898
▁취미생활	-11.898
▁파울	-11.898
▁다채로	-11.898
▁다름	-11.898
▁서운하	-11.898
▁겸비	-11.898
▁먹방	-11.8981
▁열망	-11.8981
▁실정이다	-11.8981
▁작물	-11.8981
▁이어갔다	-11.8982
▁기술금융	-11.8982
▁새출발	-11.8982
▁그랜드슬램	-11.8982
▁꼽힌다	-11.8982
▁명실상부	-11.8982
▁유안타증권	-11.8982
▁노래부르	-11.8982
▁복무	-11.8982
▁연석회의	-11.8982
▁악성코드	-11.8982
▁검찰총장	-11.8982
IBM	-11.8982
▁베터리	-11.8982
▁싹	-11.8982
▁회사채	-11.8982
더라구	-11.8982
▁에피	-11.8982
프트	-11.8982
전형	-11.8982
신가요	-11.8982
▁좋겠습니다	-11.8983
▁송금	-11.8983
▁파급	-11.8983
▁합심	-11.8983
▁멋지게	-11.8983
▁부결	-11.8983
▁집필	-11.8983
▁냉정하	-11.8983
▁호재	-11.8983
▁전자책	-11.8984
필드	-11.8984
▁감염병	-11.8984
▁어느새	-11.8984
▁억울하다	-11.8985
▁로또	-11.8985
▁볼링	-11.8985
▁교양	-11.8985
▁흥미롭게	-11.8985
▁늙었다	-11.8985
▁니즈	-11.8985
▁뭐할까	-11.8985
▁지적하며	-11.8986
▁전해진다	-11.8986
▁연말까지	-11.8986
▁보유세	-11.8986
▁맛난	-11.8987
▁돌발	-11.8987
승리	-11.8987
▁환수	-11.8987
▁연주한다	-11.8987
▁본토	-11.8987
▁물류	-11.8987
▁해주면	-11.8988
유진	-11.8988
준희	-11.8988
▁화물	-11.8988
대학생	-11.8988
▁보직	-11.8988
주째	-11.8988
▁파행	-11.8989
▁위배	-11.8989
▁항의했다	-11.8989
▁고백하면	-11.8989
▁인준	-11.899
문제에	-11.899
▁인정받아	-11.8991
▁저마다	-11.8991
▁의욕이	-11.8991
했었는데	-11.8992
▁추산	-11.8992
▁대입	-11.8992
JP	-11.8992
▁살아온	-11.8992
▁장래	-11.8992
▁잔류	-11.8993
▁만하다	-11.8994
▁보험회사	-11.8994
▁숨어	-11.8994
대우건설	-11.8994
▁정당화	-11.8994
▁귀중	-11.8995
cm	-11.8995
▁파랑	-11.8995
▁고소했다	-11.8996
공학과	-11.8996
성동	-11.8996
▁신망	-11.8997
▁혈세	-11.8997
▁추진되고	-11.8997
▁면모	-11.8998
▁일삼	-11.8998
관계가	-11.8998
워크	-11.8998
▁나왔는데	-11.8999
▁만회	-11.8999
▁동작	-11.8999
▁껴	-11.8999
▁개선되고	-11.8999
▁자초	-11.8999
▁쓰여	-11.8999
▁배임	-11.8999
▁옹	-11.8999
▁지배하는	-11.8999
▁발부	-11.9
▁잔여	-11.9
심에서	-11.9
▁어업	-11.9
▁개별적으로	-11.9
무역협회	-11.9
▁올스타	-11.9
▁싱글이다	-11.9
▁포기하	-11.9
▁달려있다	-11.9
▁스크린	-11.9
▁여학생	-11.9
▁풋볼	-11.9
▁바쁘지만	-11.9001
▁아물	-11.9001
▁험	-11.9001
▁카약	-11.9001
▁탱크	-11.9001
▁중소기업중앙회	-11.9001
▁가습기	-11.9001
▁뜬	-11.9001
▁에이전트	-11.9001
▁평창동계올림픽	-11.9001
▁갑작스러운	-11.9001
▁구두	-11.9001
▁국토교통부	-11.9001
▁임산부	-11.9002
▁지주회사	-11.9002
▁기꺼이	-11.9002
▁붓	-11.9002
▁정신없이	-11.9002
▁일시적으로	-11.9002
▁웹툰	-11.9002
고기압	-11.9002
▁몽골	-11.9002
▁무의식	-11.9002
▁근로시간	-11.9003
▁미친듯이	-11.9003
▁관세청	-11.9004
▁양호한	-11.9004
▁중요시	-11.9004
▁회의록	-11.9004
▁싸웠	-11.9004
▁일치한다	-11.9004
▁마찬가지다	-11.9004
▁신년사	-11.9004
▁기본계획	-11.9005
▁읽어주	-11.9005
▁기부금	-11.9005
▁작다	-11.9005
▁깔끔한	-11.9005
▁친박계	-11.9005
▁목욕	-11.9005
건물	-11.9006
▁구분해	-11.9006
▁78	-11.9006
▁도착했다	-11.9006
▁임명동의안	-11.9006
브라이언	-11.9007
▁실수하지	-11.9007
▁이루어져	-11.9007
브레	-11.9007
▁두어	-11.9007
▁체결한	-11.9007
▁결집	-11.9007
▁입술	-11.9007
▁뿐이지	-11.9007
▁임의	-11.9008
▁집착해	-11.9008
▁위조	-11.9008
시겠습니까	-11.9008
▁힘내지	-11.9008
▁보입니다	-11.9009
▁않는다고	-11.9009
▁여름철	-11.9009
▁학생이니	-11.9009
롯데월드	-11.901
▁저작권	-11.901
시께	-11.901
▁변론	-11.9011
▁듀	-11.9011
▁국어	-11.9011
도로공사	-11.9011
▁우유	-11.9011
▁전례	-11.9012
▁운동화	-11.9012
▁강사로	-11.9012
부정	-11.9012
▁실시해	-11.9013
보드	-11.9013
EC	-11.9013
▁개선됐다	-11.9013
▁사라져	-11.9014
▁증여	-11.9014
▁잠실구장	-11.9014
▁대답했다	-11.9015
▁마신	-11.9015
▁남용	-11.9016
▁선거제도	-11.9016
▁당했어	-11.9017
▁가을이	-11.9018
대우증권	-11.9018
번에	-11.9019
▁루시	-11.9019
▁방에	-11.9019
▁심상	-11.9019
선수로	-11.902
▁콜리	-11.902
▁연이어	-11.902
▁말씀드리	-11.902
▁이상하게도	-11.902
▁상세	-11.902
▁변화시켜	-11.902
▁새정치	-11.902
▁센서	-11.9021
사정	-11.9021
▁KEB	-11.9022
▁네이마르	-11.9022
▁우울한	-11.9023
▁MB	-11.9023
▁거창	-11.9023
▁부여하고	-11.9023
▁반성하고	-11.9024
▁계획대로	-11.9024
▁트레이드	-11.9024
▁지역발전	-11.9024
마틴	-11.9025
▁품종	-11.9025
▁퇴임	-11.9025
▁도망가	-11.9025
▁일관성	-11.9026
▁양구	-11.9026
▁고령자	-11.9026
▁한국시리즈	-11.9027
▁예정돼	-11.9027
▁주행	-11.9027
▁밀양	-11.9027
▁셀	-11.9027
▁시키	-11.9028
▁회계사	-11.9028
▁격렬	-11.9029
▁최장	-11.9029
▁특징이다	-11.9029
▁포항시	-11.9029
▁깨우	-11.9029
▁맨유	-11.9029
▁제시하고	-11.9029
▁있냐	-11.903
그것이	-11.903
▁변화에	-11.903
▁대통합	-11.903
▁가능하면	-11.9031
▁오늘부터	-11.9032
▁살아남	-11.9033
▁재판관	-11.9033
▁무선	-11.9033
▁가해자	-11.9034
▁선택해야	-11.9034
▁예술가야	-11.9035
▁실형	-11.9035
▁보이는데	-11.9035
▁나타	-11.9035
▁젤	-11.9035
▁막내	-11.9036
▁헤어지지	-11.9037
▁결혼하면	-11.9037
▁마련하기	-11.9038
▁가능해요	-11.9039
▁일어나면	-11.9039
▁제의를	-11.9039
▁자신했다	-11.904
▁성수	-11.904
▁탈세	-11.904
▁그린다	-11.904
▁왔네	-11.904
하고싶어	-11.904
거려	-11.9042
▁멘토	-11.9042
▁스튜디오	-11.9042
▁포털	-11.9043
▁해수부	-11.9043
▁허비	-11.9043
들였다	-11.9043
▁단원	-11.9044
부진	-11.9044
▁꼼수를	-11.9045
▁우린	-11.9045
▁자아	-11.9046
▁고백해도	-11.9047
▁띠	-11.9048
여객	-11.9048
▁못했지만	-11.9049
▁지미	-11.9049
죄를	-11.9049
▁기소했다	-11.905
▁사찰	-11.905
▁특기	-11.905
공간을	-11.9051
▁처음이	-11.9051
▁얼어	-11.9051
▁공중	-11.9051
▁표창을	-11.9052
▁체크	-11.9053
▁깨요	-11.9053
▁참관	-11.9053
▁정산	-11.9054
▁상금	-11.9054
▁마무리했다	-11.9054
라이트	-11.9055
▁다음부터	-11.9055
▁소개시켜	-11.9055
▁어머	-11.9055
▁경영권	-11.9056
▁제조사	-11.9056
▁재우	-11.9056
▁발견하고	-11.9056
▁조합원	-11.9057
▁방해가	-11.9057
▁120	-11.9057
▁마침	-11.9057
▁멋지고	-11.9057
▁공식적인	-11.9057
▁HD	-11.9057
▁충격으로	-11.9058
▁요금제	-11.9058
지표	-11.9058
▁정유	-11.9058
▁공부할	-11.9058
▁스트레칭을	-11.9059
▁벼	-11.906
해주시	-11.906
▁얘기하는	-11.9061
▁용량	-11.9062
▁느낌이야	-11.9062
▁키우기	-11.9062
▁대형마트	-11.9062
▁없던	-11.9063
▁참이야	-11.9063
▁병력	-11.9063
▁갤럭시	-11.9063
▁통합진보당	-11.9063
▁생각했던	-11.9063
▁LTE	-11.9063
▁ETF	-11.9063
▁렌즈	-11.9063
▁올린다	-11.9064
▁61	-11.9064
▁주장하면서	-11.9064
▁수반	-11.9065
▁91	-11.9066
▁임종	-11.9068
▁될거예요	-11.907
▁사범	-11.907
대책위원회	-11.907
▁되려고	-11.907
▁상위권	-11.9071
▁해당하지	-11.9072
▁색상	-11.9072
▁꼬박	-11.9072
▁만연	-11.9073
▁개선방안	-11.9074
▁흉기	-11.9074
▁치면서	-11.9074
▁롯데그룹	-11.9074
스코	-11.9074
▁못하지만	-11.9074
호선	-11.9075
▁해방	-11.9075
▁맛있을	-11.9075
▁돌아간다	-11.9075
▁사람들에	-11.9076
▁대여	-11.9078
▁양승	-11.9079
▁적정성	-11.9079
용지	-11.9079
▁참여정부	-11.908
▁제품이다	-11.908
신이	-11.9081
▁펑	-11.9082
▁선진	-11.9083
▁협정	-11.9083
승용	-11.9084
▁펄	-11.9084
▁김무성	-11.9084
경선	-11.9085
▁하나님	-11.9085
▁유사한	-11.9085
▁개혁안	-11.9086
▁비박	-11.9087
연주	-11.9087
▁보호소에서	-11.9088
▁교섭	-11.9089
▁이야기해도	-11.909
▁노동시장	-11.9091
▁전속	-11.9091
▁취미야	-11.9092
▁독일어	-11.9092
▁한차례	-11.9092
▁상어	-11.9093
▁단원고	-11.9093
▁이동하고	-11.9094
▁업소	-11.9094
▁박진	-11.9096
▁날씨야	-11.9097
▁분석이다	-11.9097
▁""100	-11.9097
했나	-11.9098
▁분배	-11.9098
▁축구팀	-11.9099
▁연안	-11.9099
▁가능할까	-11.91
▁공모전	-11.91
▁아니길	-11.91
▁연습에	-11.91
사업자	-11.9101
대피	-11.9101
▁하트	-11.9102
▁완주	-11.9102
하신다	-11.9103
▁변했다	-11.9103
▁스카이	-11.9103
▁쭉	-11.9104
삼성전자는	-11.9104
▁떠난다	-11.9104
▁아니죠	-11.9104
▁라이프	-11.9106
▁좋으시	-11.9107
▁만들까	-11.9108
▁창원시	-11.9109
▁서민들이	-11.911
▁싸움이	-11.911
▁참배	-11.9113
▁고민해	-11.9116
▁공간으로	-11.9117
족한	-11.9117
▁시집	-11.9118
▁맞추기	-11.9118
내부	-11.9118
▁나한테만	-11.9118
▁좋아했는데	-11.9118
▁확인해야	-11.9119
▁말씀드렸	-11.9119
▁직원들에게	-11.9119
▁높인	-11.9119
▁친노	-11.912
내부적으로	-11.912
▁절실	-11.9121
▁전망치	-11.9122
▁요원	-11.9123
▁폼	-11.9123
▁상원	-11.9123
전투	-11.9124
▁준비하면서	-11.9124
▁질리	-11.9125
▁다음주	-11.9126
상황에	-11.9126
▁일하며	-11.9128
▁쓰게	-11.913
▁많으면	-11.913
▁농업인	-11.913
▁집착하는	-11.913
▁오산	-11.9131
▁원으로	-11.9132
▁은행권	-11.9133
▁말했고	-11.9133
▁본부	-11.9133
▁시술	-11.9134
▁야외에	-11.9135
▁트리	-11.9135
▁난이도	-11.9135
▁말하지만	-11.9135
▁최소화하는	-11.9136
자회담	-11.9137
▁증시에	-11.9138
▁조리	-11.914
▁일하지만	-11.9141
쓰는	-11.9141
평면	-11.9142
경기장	-11.9142
▁잠재	-11.9143
▁자체에	-11.9144
▁인정받는	-11.9146
▁떡	-11.9146
▁하네요	-11.9146
▁실리	-11.9146
역전승	-11.9146
▁도와줘야	-11.9147
▁환경부	-11.9149
▁있음에	-11.9151
▁글자	-11.9151
▁녹여	-11.9152
▁그만두고	-11.9152
▁보트	-11.9153
▁신뢰할	-11.9154
▁가입했다	-11.9155
▁41	-11.9155
▁인원은	-11.9156
▁김수	-11.9156
단계에서	-11.9157
씨에	-11.9157
▁잔다	-11.9158
▁강간	-11.9159
했는데요	-11.9159
▁펼쳐지	-11.916
▁효과적인	-11.916
▁생각하지만	-11.916
33	-11.916
▁쟁	-11.9164
▁룸메이트들	-11.9165
있나요	-11.9166
▁인부	-11.9166
▁수행하고	-11.9166
▁성적표	-11.9168
▁일이었다	-11.9168
▁갈라	-11.9171
▁조문	-11.9172
성대	-11.9172
▁양당	-11.9173
아동	-11.9173
식당	-11.9175
▁이직	-11.9177
▁이사가	-11.9177
▁전화하는	-11.9178
▁비판하	-11.9179
▁하듯	-11.918
▁자신감이	-11.9181
▁서쪽	-11.9181
티브	-11.9181
▁직업에	-11.9182
▁확대했다	-11.9186
▁상부	-11.9187
▁보드	-11.9188
▁보임	-11.9189
▁팀이다	-11.9189
▁벤	-11.919
년이란	-11.919
114	-11.919
을까요	-11.9191
▁54	-11.9191
▁공적	-11.9192
▁특수성	-11.9196
AT	-11.9196
▁극복하는	-11.9196
▁이걸	-11.9196
학자	-11.9197
▁유진	-11.9197
대결	-11.9197
▁용품	-11.9198
▁옷이	-11.9201
▁낮아지	-11.9201
▁만난다	-11.9202
당했다	-11.9204
▁입주자	-11.9205
▁인연을	-11.9206
천명	-11.9206
▁자질	-11.9207
▁좋겠다는	-11.9207
▁쓰일	-11.9208
▁따위	-11.9209
▁수사권	-11.921
▁쿠	-11.9211
▁후보들	-11.9212
▁가슴에	-11.9212
교육부	-11.9212
▁좋아합니다	-11.9213
중학교	-11.9214
▁것이라면	-11.9215
▁모은다	-11.9217
▁방법이다	-11.9218
▁황사	-11.9219
▁막히	-11.922
96	-11.9221
▁쓰이는	-11.9223
▁바꾸면	-11.9223
▁몫을	-11.9225
▁이민	-11.9225
론과	-11.9226
▁기대치	-11.9227
▁농성	-11.9227
▁평가다	-11.9228
▁재판에	-11.9228
▁감사하고	-11.9229
갈등을	-11.9229
포스	-11.9229
▁도덕적	-11.923
▁글에서	-11.9232
▁빠지는	-11.9233
▁생활비	-11.9234
▁주머니	-11.9234
감과	-11.9235
방법을	-11.9235
▁반대한다	-11.9235
▁났어	-11.9236
▁수요일	-11.9238
▁기억을	-11.9239
▁고려해야	-11.924
▁숨지	-11.9243
▁혜택이	-11.9244
▁죽지	-11.9246
▁지르고	-11.9246
▁한순간	-11.9247
인천	-11.9248
▁포함돼	-11.9249
차관	-11.925
▁완만	-11.9251
말하자면	-11.9251
▁편법	-11.9253
▁진행하겠다	-11.9255
잡이	-11.9255
▁많다고	-11.9256
▁컵	-11.9258
했었	-11.9259
▁입는다	-11.9261
▁발사대	-11.9262
하에	-11.9266
▁되게	-11.9269
▁경제적으로	-11.9271
▁칸	-11.9272
▁하기를	-11.9272
el	-11.9273
▁과학자	-11.9274
▁9000	-11.9275
▁의지로	-11.9275
▁사랑도	-11.9275
▁등재	-11.9278
▁이밖에	-11.928
어주는	-11.928
▁마셔야	-11.9281
▁실험실	-11.9286
월드	-11.9288
건에	-11.9289
좋아하는	-11.9289
196	-11.929
▁공고	-11.929
▁댓글을	-11.929
거리를	-11.929
▁비위	-11.9292
▁안전하고	-11.9292
▁텔레비전을	-11.9292
▁무시하	-11.9293
▁상승한	-11.9294
▁조합	-11.9294
▁따져봐	-11.9294
▁개선하고	-11.9295
▁매체는	-11.9295
▁집착하	-11.9295
마르	-11.9295
▁꿈같	-11.9296
▁잘하니	-11.9296
학부	-11.9305
▁부스	-11.9305
상장기업	-11.9307
▁내년부터	-11.9307
윤석	-11.9308
▁충고	-11.9309
▁소설가	-11.9312
▁주된	-11.9312
▁개발하고	-11.9313
▁책들	-11.9315
▁고생하	-11.9316
물품	-11.9318
주장	-11.9321
▁맞이하	-11.9321
▁연애하고	-11.9325
▁상주	-11.9325
방울	-11.9325
▁한복	-11.9326
▁강하고	-11.9327
▁두번	-11.9329
▁선수다	-11.9331
▁생각하게	-11.9331
▁당면	-11.9332
▁가구를	-11.9333
▁고점	-11.9335
▁남자다	-11.9336
▁고쳤	-11.9336
▁방심	-11.9336
▁현실과	-11.934
▁에이	-11.9342
▁핵과	-11.9342
사들의	-11.9344
▁선장	-11.9345
▁장학금을	-11.9345
점에	-11.9351
▁전면적	-11.9351
▁어장	-11.9353
북한과	-11.9353
▁됐습니다	-11.9354
[...]
